<pad>
</s>
<s>
<sep_0>
<sep_1>
<sep_2>
<sep_3>
<sep_4>
<no_saic_raw_sp>
<length_0>
<length_1>
<length_2>
<length_3>
<length_4>
<length_5>
<length_6>
<length_7>
<length_8>
<length_9>
<length_10>
<length_11>
<length_12>
<length_13>
<length_14>
<length_15>
<length_16>
<length_17>
<length_18>
<length_19>
<length_20>
<length_s>
<length_m>
<length_l>
<::::>
<space>
<unused_34>
<unused_35>
<unused_36>
<no_query_sp>
<no_passage_raw_sp>
<unused_39>
<unused_40>
<unused_41>
<unused_42>
<unused_43>
<unused_44>
<unused_45>
<unused_46>
<unused_47>
<unused_48>
<unused_49>
<paraphrasing_0>
<paraphrasing_1>
<paraphrasing_2>
<paraphrasing_3>
<paraphrasing_4>
<paraphrasing_5>
<paraphrasing_6>
<paraphrasing_7>
<paraphrasing_8>
<empty>
<row>
<cn>
<t>
<ans>
<unused_64>
<unused_65>
<unused_66>
<unused_67>
<unused_68>
<unused_69>
<unused_70>
<unused_71>
<unused_72>
<unused_73>
<unused_74>
<unused_75>
<unused_76>
<unused_77>
<unused_78>
<unused_79>
<unused_80>
<unused_81>
<unused_82>
<unused_83>
<unused_84>
<unused_85>
<unused_86>
<unused_87>
<unused_88>
<unused_89>
<unused_90>
<unused_91>
<unused_92>
<unused_93>
<unused_94>
<unused_95>
<unused_96>
<unused_97>
<unused_98>
<unk>
[CLS]
[SEP]
[MASK]
<S>
<T>
!
"
#
$
%
&
'
(
)
*
+
,
-
.
/
0
1
2
3
4
5
6
7
8
9
:
;
<
=
>
?
@
A
B
C
D
E
F
G
H
I
J
K
L
M
N
O
P
Q
R
S
T
U
V
W
X
Y
Z
[
\
]
^
_
`
a
b
c
d
e
f
g
h
i
j
k
l
m
n
o
p
q
r
s
t
u
v
w
x
y
z
{
|
}
~
¡
¢
£
¤
¥
¦
§
¨
©
ª
«
¬
®
¯
°
±
²
³
´
µ
¶
·
¸
¹
º
»
¼
½
¾
¿
À
Á
Â
Ã
Ä
Å
Æ
Ç
È
É
Ê
Ë
Ì
Í
Î
Ï
Ð
Ñ
Ò
Ó
Ô
Õ
Ö
×
Ø
Ú
Û
Ü
Ý
Þ
ß
à
á
â
ã
ä
å
æ
ç
è
é
ê
ë
ì
í
î
ï
ð
ñ
ò
ó
ô
õ
ö
÷
ø
ù
ú
û
ü
ý
þ
ÿ
ā
ă
Ą
ą
Ć
ć
Ĉ
Č
č
Ď
ď
Đ
đ
ē
ĕ
Ė
ė
Ę
ę
Ě
ě
ĝ
Ğ
ğ
ġ
ģ
ħ
ĩ
Ī
ī
Į
İ
ı
ķ
Ĺ
ĺ
ļ
Ľ
ľ
Ł
ł
Ń
ń
ņ
Ň
ň
Ō
ō
ŏ
Ő
ő
Œ
œ
ŕ
Ř
ř
Ś
ś
Ş
ş
Š
š
Ţ
ţ
ť
Ū
ū
ŭ
Ů
ů
ű
Ų
ų
Ÿ
ź
Ż
ż
Ž
ž
ſ
ƒ
ơ
ư
ǎ
ǐ
ǔ
ș
ɑ
ə
ɛ
ʒ
ˆ
ˈ
ː
˙
˚
˛
˝
́
̃
̈
̍
̤
Ά
Α
Β
Γ
Δ
Ε
Η
Θ
Ι
Κ
Μ
Ν
Ο
Π
Ρ
Σ
Τ
Φ
Χ
Ω
ά
έ
ή
ί
α
β
γ
δ
ε
ζ
η
θ
ι
κ
λ
μ
ν
ξ
ο
π
ρ
ς
σ
τ
υ
φ
χ
ψ
ω
ϋ
ό
ύ
ώ
Ё
Ђ
Ѓ
Є
І
Љ
Њ
Ћ
Ќ
Џ
А
Б
В
Г
Д
Е
Ж
З
И
Й
К
Л
М
Н
О
П
Р
С
Т
У
Ф
Х
Ц
Ч
Ш
Ы
Э
Ю
Я
а
б
в
г
д
е
ж
з
и
й
к
л
м
н
о
п
р
с
т
у
ф
х
ц
ч
ш
щ
ъ
ы
ь
э
ю
я
ё
ѓ
є
ѕ
і
ї
ј
љ
њ
ќ
ў
џ
Ґ
ґ
ғ
қ
ҡ
ң
ү
ұ
һ
ә
ө
ֿ
א
ב
ג
ד
ה
ו
ז
ט
י
כ
ל
ם
מ
ן
נ
ס
ע
פ
צ
ק
ר
ש
ת
،
ء
آ
أ
إ
ا
ب
ة
ت
ث
ج
ح
خ
د
ذ
ر
ز
س
ش
ص
ض
ط
ع
غ
ف
ق
ك
ل
م
ن
ه
و
ى
ي
ً
َ
ُ
ِ
ّ
ْ
ک
ی
۰
۱
۲
۹
अ
क
म
र
स
ह
ा
ि
े
ব
ি
ก
ข
ค
ง
จ
ช
ณ
ด
ต
ถ
ท
ธ
น
บ
ป
ผ
พ
ม
ย
ร
ล
ว
ศ
ส
ห
อ
ะ
ั
า
ำ
ิ
ี
ึ
ื
ุ
ู
เ
แ
ใ
ไ
ๆ
็
่
้
ა
ბ
გ
დ
ე
ვ
ი
ლ
მ
ნ
ო
რ
ს
ტ
შ
በ
ዓ
ṭ
ṳ
ạ
ả
ầ
ế
ễ
ệ
ồ
ổ
ộ
ớ
ữ
ỹ
‐
‑
‒
–
—
―
‘
’
‚
‛
“
”
„
‟
†
‡
•
…
‰
′
″
‹
›
※
⁄
₂
€
№
™
Ω
←
↑
→
⇒
⇢
−
√
∞
≈
≤
≥
╚
╩
■
▪
►
▼
◆
◊
○
◎
●
★
♀
♣
♥
♦
♪
、
。
《
》
「
」
『
』
【
】
あ
い
う
え
お
か
が
き
く
け
こ
し
じ
す
た
だ
ち
っ
つ
て
で
と
な
に
の
は
ば
へ
ま
み
め
も
ら
り
る
れ
わ
を
ん
イ
オ
カ
ジ
ス
タ
テ
ト
ナ
バ
フ
メ
ラ
ル
ン
・
ー
一
三
上
下
不
东
个
中
为
乐
了
事
二
五
井
亚
交
京
人
仁
以
会
伦
体
你
信
修
元
克
免
入
全
八
公
内
出
分
切
刘
利
到
前
剥
动
北
区
匿
十
南
博
厂
原
去
参
取
口
可
台
司
合
吉
名
吗
和
啦
器
四
回
国
图
國
土
在
地
场
城
士
多
大
天
套
女
娜
娱
婷
子
字
学
安
定
客
家
容
寺
寿
小
少
就
屋
山
岛
島
崎
川
州
工
市
帝
常
平
年
広
应
建
式
引
当
影
德
心
思
性
情
愛
成
我
所
手
敏
文
新
方
日
明
易
是
更
最
月
有
木
本
机
李
村
来
杨
東
松
林
枫
核
楽
模
正
武
比
民
水
江
治
法
浦
海
淫
深
清
湖
湯
漢
爱
片
物
王
球
理
生
用
田
电
疫
白
的
直
相
県
知
石
社
神
禅
种
空
站
简
線
网
羅
美
而
能
腹
自
舞
色
艳
花
茶
華
落
行
西
見
见
解
言
記
語
讨
论
语
赌
越
路
载
迅
过
运
这
通
道
都
酒
里
重
金
長
雄
雷
青
面
音
頂
顶
颖
题
風
食
香
馬
駅
马
高
국
어
한




ﬁ
ﬂ
（
）
，
－
：
the
in
of
and
die
der
to
und
is
##s
that
zu
for
von
den
ist
für
on
mit
with
das
The
auf
an
be
are
des
eine
as
this
im
Sie
nicht
it
werden
##e
we
by
dass
have
##en
ein
dem
sich
not
Die
you
wir
es
will
which
auch
##n
from
was
sind
at
or
wird
has
als
In
oder
ich
can
all
um
also
European
über
haben
our
so
einer
hat
##r
sie
wie
zur
einen
bei
Das
Union
aus
your
können
Ich
its
but
We
would
more
their
einem
am
been
##er
nach
zum
one
This
diese
EU
##ing
It
nur
Wir
uns
durch
Mr
##t
should
kann
Der
##d
dieser
Commission
##a
must
very
they
vor
daß
Es
noch
there
Kommission
new
other
wurde
only
like
time
President
aber
do
Hotel
about
wenn
Herr
sein
müssen
sehr
##es
up
these
who
man
war
##ed
de
##o
diesem
if
no
us
er
mehr
Europäischen
any
Europe
alle
people
out
into
were
Parliament
bis
such
well
möchte
what
States
countries
than
eines
##m
##i
report
Member
##ly
ihre
his
when
vom
need
use
my
most
first
some
Präsident
sowie
Council
dieses
now
make
them
many
unter
gibt
between
important
work
##y
hotel
because
hier
zwischen
take
muss
Bericht
keine
unsere
made
two
Parlament
years
information
Ihnen
had
just
world
anderen
support
way
Mitgliedstaaten
If
those
Europa
he
over
##l
where
policy
Wenn
being
immer
dann
may
Im
even
damit
diesen
year
wurden
system
gegen
dies
10
good
right
Zeit
Diese
Frau
##de
area
da
order
unserer
seine
sondern
part
Ihre
habe
market
##ung
jedoch
through
You
Europäische
Menschen
here
political
place
economic
after
same
possible
could
how
neue
##den
heute
own
Jahr
see
As
development
There
then
within
For
want
bereits
country
rights
against
both
much
ihrer
international
used
sollte
Jahren
ohne
mich
neuen
find
europäischen
therefore
high
andere
public
under
does
Entwicklung
without
Rat
##te
zwei
free
denen
sollten
Frage
services
number
great
point
long
finden
still
ganz
social
20
fact
last
Ein
available
room
Welt
know
different
bietet
say
Mit
000
viele
machen
already
liegt
view
future
Unternehmen
weil
dazu
before
But
##al
allen
me
believe
course
today
service
too
30
wieder
That
denn
seiner
jetzt
products
able
2009
darauf
process
level
quality
cannot
data
Lage
Maßnahmen
geht
Bereich
case
think
Informationen
selbst
get
day
##in
dafür
schon
einige
human
financial
set
offers
end
##k
ihren
So
ihr
com
Commissioner
national
15
Herrn
city
during
Jahre
best
small
00
US
including
example
allem
said
means
Arbeit
Land
debate
issue
since
würde
Dies
Eine
every
question
proposal
##h
China
bin
meine
All
##on
help
business
Und
based
rooms
ob
situation
mir
per
viel
wollen
Our
unseren
However
12
access
each
Länder
la
##ten
während
clear
Für
particular
three
Committee
Internet
etwas
next
offer
##u
nun
energy
large
Art
Zimmer
areas
doch
measures
wo
her
common
few
##S
insbesondere
sagen
Wie
gut
give
provide
seit
citizens
far
möglich
agreement
2010
On
ab
waren
problem
taken
2008
again
put
Rahmen
Ländern
ensure
Unterstützung
##g
further
Parlaments
come
erhalten
security
change
problems
ersten
##le
lassen
##ischen
Teil
Zusammenarbeit
while
company
given
necessary
Namen
beim
USA
why
besteht
geben
Fall
however
Group
United
shall
And
Vorschlag
real
back
soll
To
##A
##us
life
cooperation
Bürger
vote
stehen
With
Ziel
needs
located
seinen
stay
steht
They
System
always
wäre
einfach
Stadt
position
##0
drei
go
50
en
law
better
Problem
##ers
Bei
sehen
Fragen
einmal
At
dabei
##z
tun
letzten
du
group
Euro
hope
action
Seite
wichtig
House
##ia
form
Community
around
main
using
Daten
Kollegen
full
Recht
protection
What
2007
state
worden
current
trade
##ische
großen
große
deren
Aber
power
become
working
did
Was
Sicherheit
terms
Auf
production
open
Fraktion
Bedeutung
##re
whether
welche
Regierung
Er
Verfügung
making
11
legal
down
special
particularly
present
Mrs
another
These
together
Staaten
Möglichkeit
Auch
weiter
Ihr
When
result
könnte
100
centre
2000
children
Nach
second
Als
##an
##2
issues
muß
government
politischen
davon
conditions
German
25
Thema
Politik
Probleme
health
bieten
systems
role
eigenen
Weise
women
kein
darüber
companies
daher
certain
sowohl
weitere
sector
stellen
aller
especially
industry
Service
experience
control
##c
Kunden
page
global
hatte
kommen
Kommissar
various
site
alles
private
called
erreichen
whole
Ende
basis
befindet
##et
old
local
wissen
##1
besonders
ihnen
km
really
non
Zukunft
close
matter
modern
account
Ihrer
meiner
Beispiel
wirklich
done
innerhalb
Germany
third
24
unterstützen
specific
create
gegenüber
##or
region
budget
natürlich
respect
research
vielen
verschiedenen
unser
2006
Richtlinie
Rolle
##sten
zwar
term
major
million
##ch
entfernt
Frauen
internationalen
less
Weg
location
water
##st
look
staff
decision
single
crisis
itself
##ion
##able
something
Seiten
##ic
several
project
##iert
least
growth
continue
often
##ity
dort
möchten
New
hand
resolution
rapporteur
No
18
Tag
Ihren
##p
management
away
going
programme
direkt
following
name
general
##is
pro
europäische
family
rules
etc
##lich
führen
line
Hotels
gentlemen
##rs
excellent
price
money
##ation
He
erste
EUR
regard
off
##3
wish
Um
food
Artikel
once
##E
little
##ne
environment
##ra
start
subject
directive
Programm
Mittel
institutions
range
online
Software
Alle
##ge
Hier
##ment
software
Meinung
transport
ask
World
found
beiden
towards
things
welcome
until
Situation
Lösung
Region
increase
Zusammenhang
product
kommt
days
##R
short
him
14
weniger
fast
known
home
unserem
rather
Uhr
individual
16
2005
##ie
##x
Madam
interest
opportunity
economy
Treaty
Hilfe
customers
personal
bringen
value
Dieses
approach
thank
resources
Leben
stellt
forward
etwa
positive
bzw
activities
call
##T
Produkte
quite
sogar
provided
##4
jeder
Millionen
daran
##C
indem
yet
gilt
State
period
Grund
Präsidentin
might
TV
technology
aid
Haus
air
fully
##se
##5
among
13
September
An
politische
include
Schutz
nämlich
Europas
behalf
gesagt
Deshalb
2004
agree
International
Rates
##os
Members
having
Kinder
members
left
bitte
One
list
ja
taking
costs
##el
After
Deutschland
##N
##ieren
field
solution
ladies
framework
proposals
##um
hinaus
town
##ar
others
nehmen
safety
amendments
above
building
dessen
design
ihn
progress
times
reason
minutes
##D
2003
##bar
ebenfalls
seinem
policies
easy
ihm
Berlin
adopted
content
gemacht
Dieser
Personen
Ebene
40
effective
makes
allow
Unsere
darin
difficult
##ce
play
Punkt
opinion
##ur
Website
enjoy
Form
unterstützt
legislation
projects
gute
öffentlichen
darf
results
website
key
application
points
Aussprache
Wirtschaft
provides
gehen
attention
show
favour
ins
simply
Qualität
##b
due
responsibility
gerade
meisten
groups
einigen
society
concerned
Gemeinschaft
schaffen
Rechte
2001
contact
addition
Da
ihrem
dürfen
glaube
greater
Restaurant
##P
nationalen
she
nichts
beautiful
questions
sollen
importance
strategy
##as
keinen
##ness
brauchen
17
jeden
text
##M
weiterhin
##ig
ideal
sicher
handelt
environmental
Abstimmung
##®
recent
genau
##7
zusammen
standards
##6
complete
würden
version
along
sei
century
Kosten
##isch
principle
sea
words
Ort
Bezug
La
aufgrund
19
bedeutet
required
natural
Gesellschaft
risk
betrifft
training
Russia
solche
user
##der
besser
views
Zugang
deutlich
authorities
2002
kind
meeting
clearly
heart
November
deal
##8
address
##na
Aus
21
deshalb
four
wichtige
wide
step
achieve
longer
##liche
breakfast
employment
past
Strategie
enough
needed
serious
cultural
klar
technical
side
Markt
macht
nächsten
cost
Richtung
months
besten
##land
schnell
allerdings
via
feel
history
essential
Von
bring
central
Menschenrechte
solutions
directly
pages
interests
##nt
proposed
responsible
Dank
##ter
Umsetzung
Ansicht
findet
facilities
currently
##ting
##gen
near
beispielsweise
nature
nutzen
April
Windows
Ziele
internal
young
parties
developed
del
themselves
light
regions
Doch
##ste
events
requirements
##f
efforts
never
democracy
language
Nähe
guests
Bedingungen
##9
Vertrag
markets
live
##igen
Verfahren
top
Verantwortung
statt
From
vielleicht
Demokratie
involved
##lichen
gemeinsamen
peace
visit
sure
ago
related
competition
house
weit
regulation
Please
rate
##ren
Anwendung
di
freedom
implementation
Grundlage
France
total
person
Geschichte
##la
upon
extremely
changes
notwendig
könnten
voted
sozialen
though
bekannt
Interesse
Reihe
hoffe
foreign
Version
erst
force
Vorschläge
kleinen
Man
Am
et
gehört
network
please
education
Durch
prices
Gebiet
event
Bank
Herren
art
date
Institutionen
developing
erreicht
verwendet
GmbH
Möglichkeiten
strong
##ts
##O
keep
##ism
halten
let
climate
either
cases
www
hin
American
Daher
negotiations
regional
car
1999
Ihrem
comes
states
created
Debatte
comfortable
##at
friendly
democratic
almost
true
werde
##ist
sprechen
share
restaurant
fundamental
French
run
situated
pay
##ner
##L
everything
music
Auswirkungen
capital
##ern
improve
standard
according
wirtschaftlichen
re
arbeiten
Israel
request
Preis
type
success
Paris
thus
bleiben
effect
oft
living
team
beach
Dienstleistungen
unique
Hinblick
meet
##ies
##ungen
##I
lange
wenig
actually
##chen
verschiedene
additional
gemeinsame
##F
Abkommen
investment
consider
night
file
Damen
lot
Presidency
looking
hatten
included
later
five
Tatsache
low
verfügt
weltweit
##ige
idea
workers
seen
##ierung
ermöglicht
soon
San
held
direct
un
funds
Regionen
zeigt
Berichterstatter
führt
Minuten
designed
Park
understand
care
erforderlich
lead
Verhandlungen
##ck
Mitglieder
receive
Zu
200
ebenso
##B
tax
Programme
accept
##tion
appropriate
outside
##ta
famous
station
60
gesamten
early
majority
program
knowledge
thing
Vereinigten
Office
America
internationale
500
darum
##ry
procedure
IT
einzelnen
reach
hätte
road
Gruppe
Entscheidung
across
Schritt
Liste
big
bar
week
By
22
UN
Außerdem
Ergebnis
features
##ive
turn
doing
Bereichen
check
throughout
entwickelt
communication
Kolleginnen
Zentrum
Turkey
##man
danken
vier
Bar
hours
reform
guarantee
takes
certainly
How
denke
traditional
Bevölkerung
konnte
Krise
space
Beziehungen
users
##rt
military
##no
context
parts
customer
plan
jedem
Geld
works
links
party
final
##ble
ever
Antwort
setzen
bereit
existing
Abgeordneten
Änderungsanträge
add
Japan
member
leading
##ling
St
relations
weiteren
took
gleichzeitig
dar
impact
##da
Erfolg
Platz
mentioned
performance
gemeinsam
significant
befinden
concerns
although
II
Änderungsantrag
##G
Türkei
built
Blick
##il
hard
Minister
South
community
Ausdruck
heißt
population
English
helfen
Web
connection
jede
Förderung
web
pool
original
established
Verordnung
programmes
Kontrolle
nothing
My
23
AG
reasons
decisions
Aufgabe
try
remain
Verbindung
Government
concerning
perfect
media
Seit
half
apply
writing
kleine
London
##heit
##K
moment
demand
professional
Iran
Projekt
27
basic
Jahres
includes
wichtigen
game
completely
que
gestellt
weiß
##ate
##ine
aware
Mal
Online
Einsatz
Court
walk
jobs
bleibt
verbunden
culture
amount
Forschung
agreements
practice
meinen
Unser
committee
model
Zum
Since
##ro
unseres
##to
equipped
choice
liegen
gab
values
Ausschusses
style
governments
initiative
allows
bekommen
read
euro
East
Information
develop
##V
move
wegen
objectives
partners
Mail
received
Behörden
Vor
internet
Russland
gestimmt
holiday
Partner
body
simple
neu
##ure
package
jedes
Nutzung
benefit
August
Lösungen
Erweiterung
hinsichtlich
je
##ted
Landes
entire
face
send
wobei
return
##X
Entschließung
##ke
Lisbon
equipment
fight
Beitrag
Damit
wichtigsten
goods
stop
agricultural
##it
applications
seems
##ka
below
quickly
sense
Ausschuss
regarding
May
richtig
concern
center
Regierungen
treatment
mail
zurück
Let
mehrere
objective
Design
image
potential
rund
recently
gerne
wohl
##keit
Verbesserung
aim
ermöglichen
focus
##sen
National
ganzen
reports
Bitte
rates
stand
material
derzeit
Text
self
function
Here
indeed
ganze
##ier
##age
Kultur
higher
enthalten
zeigen
Affairs
gegeben
levels
mind
book
##ve
Schaffung
achieved
series
files
neben
prevent
enthält
double
highly
June
Management
follow
active
beginning
Verbraucher
job
contains
80
lässt
computer
##me
guest
Umwelt
Stunden
card
increased
act
Ergebnisse
Finally
spielen
Barcelona
verbessern
Central
Ukraine
nuclear
integration
mean
##ien
Gelegenheit
successful
whose
lack
##nen
huge
everyone
völlig
Notwendigkeit
Wort
Initiative
dialogue
nice
Verwendung
stage
border
##che
presented
Interessen
Angebot
answer
office
Woche
Bild
consumers
Frankreich
added
soziale
clean
##v
eigene
agreed
Darüber
fair
##ler
großer
Some
oil
fünf
effects
carried
später
perhaps
##th
principles
##ian
guten
Mitarbeiter
tatsächlich
Themen
General
verfügen
Wert
exchange
commitment
size
Industrie
Tage
Zeitpunkt
direction
Lissabon
complex
Gesundheit
Africa
asked
keyword
floor
fördern
choose
shows
Of
Familie
First
verwenden
##em
Wasser
amendment
City
##ca
travel
Team
matters
Während
reviews
considered
Organisation
wirtschaftliche
##ful
Änderungen
opportunities
shown
gehören
zunächst
Server
billion
meinem
response
Spain
reduce
##é
behind
##men
enable
Person
Wachstum
Now
innovative
Article
gleichen
##ll
promote
300
Mai
Italy
increasing
##ma
Juni
pressure
latest
sustainable
DE
thanks
sorgen
Therefore
Kampf
Erfahrung
British
lediglich
came
aspects
hotels
angenommen
creation
star
capacity
setting
possibility
Einführung
front
previous
Anfang
remains
##bereich
joint
providing
note
Dabei
bestehen
ca
bisher
Prozess
geführt
materials
reached
obwohl
##ary
Auswahl
easily
verstehen
Debian
hohen
supply
relevant
coming
speak
Herzen
external
industrial
Umgebung
schriftlich
Mitglied
Energie
##ise
civil
Meer
Wahl
balance
Anzahl
gewährleisten
1998
video
##co
search
atmosphere
gesamte
accommodation
Aktivitäten
äußerst
##ert
Natur
popular
prepared
somit
Integration
Museum
anderer
class
commercial
former
gebracht
scheint
Linux
age
protect
stark
Hand
cause
Party
December
actions
Sprache
Raum
##less
places
##w
limited
sound
Produktion
Western
einschließlich
leave
property
York
Zahl
Convention
Bekämpfung
##ik
##U
sites
Amsterdam
summer
priority
funding
entwickeln
Systems
Fortschritte
WTO
bed
gives
land
Also
independent
closed
submitted
decided
details
voll
Gäste
zweite
similar
Dinge
movement
CD
consumer
bestimmte
largest
enlargement
table
men
supported
Investitionen
Business
##ns
assistance
island
creating
Spiel
bestimmten
##io
Preise
North
Kommissarin
meines
rule
##mann
Insel
forms
zahlreiche
Jahrhundert
Bestimmungen
Erachtens
tragen
operation
le
##politik
versuchen
Kosovo
Dezember
charge
Handel
Mehrheit
brought
Services
el
test
26
Erklärung
regulations
Position
rest
Macht
Booking
produced
source
Gewalt
28
mobile
vergangenen
dadurch
hohe
March
stability
Stelle
purpose
außerdem
nie
safe
einzige
sagte
solchen
January
erster
six
construction
insgesamt
Entscheidungen
instead
became
ausgestattet
zweiten
Funktion
Dialog
October
mein
message
##va
West
restaurants
Republic
conference
credit
efficient
##do
variety
alten
apartment
bus
speed
schließlich
leicht
Gefahr
study
discussion
##rn
don
airport
pleased
Today
ways
70
Punkte
##ant
categories
leben
benefits
Nur
Grenzen
status
Development
Aufmerksamkeit
Vorschriften
document
led
Mediterranean
extra
größten
Strand
steps
Dr
produce
Italian
März
fishing
Folgen
started
allowed
effort
activity
##ng
Anforderungen
90
distance
Musik
Freiheit
item
cross
##Y
legislative
damage
Site
Küche
violence
regards
interesting
Spanish
Club
Projekte
Regeln
procedures
genießen
concept
fest
neuer
Beschäftigung
##system
require
Bildung
written
growing
ändern
bevor
Präsidenten
medium
giving
Rights
Nationen
compromise
##haus
school
gar
press
konnten
kurz
leisten
historical
angesichts
contribution
Bereiche
partner
eigentlich
July
Landwirtschaft
provisions
##H
tell
Standpunkt
1997
Reform
##ization
instruments
post
click
During
31
Villa
option
relation
Portugal
eingesetzt
Many
aufgenommen
Wettbewerb
leider
challenges
##ze
ll
village
wenige
Kraft
aktuellen
Gästebewertungen
task
Konferenz
PC
finally
statement
link
##ken
code
structure
gleich
##ni
gemäß
ourselves
digital
ihres
##ally
tool
criteria
Oktober
Höhe
Nr
Linie
documents
Bad
University
labour
##ismus
allein
poverty
agenda
Anfrage
Diskussion
alternative
Januar
durchgeführt
board
section
quiet
Although
##tic
highest
Benutzer
Druck
öffentliche
conflict
download
express
Bemühungen
types
Öffentlichkeit
immediately
wichtiger
Ansatz
reality
erwarten
integrated
##ri
Sinne
benötigen
suchen
avoid
drive
Transparenz
draft
Firma
bit
Gründen
consequences
europäischer
nor
Fehler
weder
base
elements
Frühstück
##lt
distribution
Meine
35
paid
Center
reading
beyond
transparency
Berichts
##zeit
Personal
death
eher
tools
elections
employees
payment
##be
Heute
Zur
##id
See
Präsidentschaft
##ors
Du
Sache
Enterprise
diejenigen
genommen
erneut
sub
beitragen
poor
Centre
applied
bezüglich
kannst
Your
official
wine
geschlossen
numerous
processes
parking
analysis
Auffassung
leaders
##est
29
friends
bringt
Furthermore
sofort
film
sieht
apartments
daily
geworden
forces
ground
treffen
solidarity
##ent
requires
ziehen
verhindern
review
Fällen
##ty
Flughafen
late
offering
halte
##ina
saying
gas
##li
word
##ial
hätten
entsprechenden
Tagesordnung
Bilder
bathroom
Juli
Änderung
High
Monaten
ideas
helpful
offered
equal
goes
##ger
While
begrüße
talk
persons
Datei
Basis
options
build
##ized
Italien
carry
colleagues
Even
illegal
establish
terrorism
news
minimum
Chinese
Natürlich
happy
Urlaub
Bürgern
enter
expect
Technologie
lives
getan
##am
##au
implemented
draw
efficiency
Restaurants
crucial
genannten
month
train
Behandlung
Schlusselwortern
reduction
Austria
Republik
useful
anti
starting
gelten
warum
weeks
anderem
lines
versucht
Tat
banks
modified
hoch
Ressourcen
behandelt
caused
nimmt
server
Unter
historic
Room
hinter
Tagen
1996
practical
Le
reference
Directive
published
ready
sometimes
operating
gefunden
shopping
thought
Standard
vergessen
Russian
Dateien
lower
erfolgt
tomorrow
organisations
monitoring
comprehensive
challenge
##W
paar
Gruppen
technologies
clients
congratulate
machine
Sicht
##ität
Erfahrungen
##ging
Atmosphäre
maximum
probably
nahe
vertreten
rich
Bürgerinnen
##ton
##ping
Finanzierung
sales
got
relating
überhaupt
besondere
transfer
erklärt
Den
Nicht
ten
Vergangenheit
Spanien
morgen
Fund
Beginn
DVD
anything
round
morning
worldwide
Dollar
häufig
child
größte
Amendment
begin
instrument
usw
zumindest
mountain
UK
gewesen
##recht
despite
waste
##line
Security
##isierung
extent
Star
Viele
Moreover
park
accordance
45
Prozent
Wochen
##des
##ierte
berücksichtigt
farmers
Rechtsvorschriften
fordern
erfüllen
sectors
players
Milliarden
erfolgreich
Werte
zahlreichen
Herausforderungen
sent
richtige
##ite
businesses
##tes
lost
secure
mention
seines
##ical
Computer
Conference
street
languages
jeweiligen
method
learn
geschaffen
##cht
Do
Aspekte
Microsoft
##platz
scientific
##ize
annual
verpflichtet
Lassen
methods
genug
Zweitens
Aufenthalt
neues
welches
außerhalb
accession
images
release
Vertrauen
stimmen
chance
influence
voting
interested
##ous
entsprechend
advantage
historischen
##ierten
Schritte
Arbeitnehmer
beste
Google
##ben
Parteien
Staat
scale
Airport
trotz
schützen
powers
Public
wanted
innovation
##los
Not
swimming
zehn
alone
Inhalt
modernen
heutigen
verantwortlich
email
stets
deutschen
privaten
cut
accepted
Adresse
wählen
strategic
Krieg
Obwohl
##berg
van
##que
games
trying
Ireland
implement
minute
Sterne
green
bessere
negative
selection
hold
technischen
reforms
fine
##ja
borders
Allerdings
Dazu
NATO
walking
raised
Schwierigkeiten
Einige
Angelegenheiten
Folge
garden
sechs
Free
doubt
Vertreter
folgt
Grand
##ue
persönlichen
currency
recht
Video
separate
Thank
Angelegenheit
demands
Berichterstatterin
Hinsicht
El
##les
Arbeitsplätze
overall
visitors
Gebäude
ausschließlich
increasingly
Only
sports
erwartet
Praxis
processing
contract
player
Indeed
vollständig
met
Afghanistan
absolutely
rise
Opfer
erlaubt
kaum
changed
calls
##schaft
relationship
folgenden
target
menu
Produkt
lang
More
Einrichtung
comfort
schwer
falls
Neben
net
Spieler
namely
übernehmen
fields
Partei
ability
join
zudem
Frieden
debt
erinnern
beide
Armut
Annahme
Wunsch
adopt
cities
Falls
worked
##son
infrastructure
likely
allgemeinen
##ium
Denn
initiatives
se
##ile
hour
Organisationen
globalen
Solidarität
Instrument
running
Wer
Secondly
plant
Its
People
kam
representatives
India
plans
Dann
maintain
Aufgaben
intended
ones
committed
setzt
entscheiden
Ihres
darstellt
yourself
endlich
letzte
kennen
Agenda
Red
goal
expressed
frei
flexible
mainly
heard
regime
Nations
Erstens
gesehen
##lo
Falle
Verfassung
confidence
opening
placed
Verpflichtungen
vital
Leute
planning
pass
evening
structural
bitten
größere
unemployment
head
traffic
EN
families
begrüßen
automatisch
administration
Iraq
love
proper
##ft
eindeutig
talking
income
vorgeschlagen
FR
students
improved
affected
powerful
approved
began
Systeme
emissions
##raum
critical
Reformen
Osten
##baren
##j
##ide
##ated
##ss
Anstrengungen
##ising
los
Idee
Nun
warm
Wahlen
reduced
justice
terrace
stress
whom
War
erkennen
deine
##bare
cohesion
##isation
zusätzliche
Asia
Kunst
Zustimmung
circumstances
tourist
Hause
administrative
white
correct
Medien
entspricht
Vereinbarung
decide
Terrorismus
Costa
Kriterien
Sitzung
usually
delivery
conclusion
mindestens
Greece
##ad
beginnen
2020
co
De
Roma
feature
cover
Anerkennung
risks
collection
unbedingt
genutzt
##ised
150
bald
##pe
comments
moderne
##ir
benutzt
sources
Karte
photo
normal
Is
Verwaltung
al
1995
contribute
ensuring
überzeugt
suitable
Vorteile
effectively
stärker
priorities
else
phone
400
Protokoll
automatically
gelegen
competitive
mal
Binnenmarkt
Film
Nutzen
Sommer
participation
Funktionen
nationale
encourage
genannt
möglicherweise
larger
##ct
Technologien
laws
Sektor
Ist
gesetzt
plus
supports
Gipfel
##way
unterschiedlichen
demokratischen
gezeigt
says
##ln
unten
vorgelegt
Stabilität
nachdem
offen
played
extensive
selbstverständlich
Middle
Volk
##ance
scope
speaking
protected
crime
##ber
victims
electronic
John
glauben
Just
dringend
folgen
wahrscheinlich
aktuelle
amerikanischen
##ki
Plan
Haushalt
bank
specifically
Swiss
##werk
Inhalte
agriculture
introduced
programs
berücksichtigen
south
Ausschuß
http
Produkten
managed
mehreren
Straße
aimed
##ut
served
##ER
Durchführung
fall
oben
bewusst
eben
fellow
lies
Frankfurt
getting
wrong
manner
Agreement
becoming
##kt
##industrie
Social
entsprechende
##led
rural
record
Zudem
purposes
tabled
expected
appear
Each
Wann
bilden
serve
detailed
Besuch
Mitteilung
precisely
##fall
Über
sicherzustellen
animals
danke
Augen
bad
covered
exist
Christian
referred
Schließlich
exactly
functions
Zunächst
les
verfügbar
discuss
jene
partnership
CO2
Sea
con
wonderful
otherwise
##lle
##zen
wesentlich
akzeptieren
Green
erfahren
Chance
motion
Policy
hinweisen
February
bestehenden
installation
fish
wants
sitting
##tor
represents
##go
Familien
limit
Spa
developments
loss
thousands
entry
erwähnt
police
besonderen
erzielt
##weise
freien
Then
Economic
discussed
mm
Why
euch
won
Homepage
Einfluss
measure
01
medical
stated
Haltung
camera
transparent
Ausbildung
darunter
Mio
discussions
finanziellen
Human
session
assessment
##fen
32
zuletzt
Board
broad
##ischer
2011
budgetary
earlier
Suche
##unternehmen
bestimmt
braucht
enterprises
##ale
Einrichtungen
Kontakt
Wettbewerbsfähigkeit
followed
##™
selected
umgesetzt
siehe
founded
dienen
sufficient
worth
benutzen
linked
hoffen
##len
notwendigen
##ang
Zeichen
inside
##nd
spend
immigration
lösen
Open
vermeiden
Sport
Anwendungen
strengthen
anderes
##om
Monate
Irak
ergreifen
closely
Standards
represent
Kindern
##ities
operations
kitchen
opened
tour
freuen
getroffen
listed
gesprochen
geändert
Auto
client
supporting
##hen
networks
Transport
Vertrags
festgelegt
guidelines
introduction
votes
metres
Switzerland
buy
Best
##sa
98
improving
Apartments
außer
Anspruch
average
She
##bau
exclusive
erfüllt
Station
##nce
fresh
happen
degree
understanding
Vereinten
wären
buildings
defined
erhöhen
Innovation
save
playing
##isiert
discrimination
marketing
Most
spacious
Code
speech
seem
considerable
Unterkategorien
gleiche
##gt
fallen
facing
His
Rooms
eingerichtet
domestic
Research
Mitte
elegant
God
Großbritannien
economies
teilweise
prüfen
wünschen
Vielfalt
fahren
sign
went
season
Menge
Stand
entweder
remember
beziehen
Wege
sicherlich
Czech
erzielen
shower
beds
duty
tourism
Konzept
anders
Stimme
jeweils
uses
telephone
Modell
jederzeit
Meter
financing
Leistungen
track
path
Poland
##ß
pleasant
technische
paper
experts
Golf
lesen
select
monetary
Schweiz
provision
##elle
Veränderungen
##barkeit
politics
purchase
hear
Ausgaben
born
institutional
prior
gave
advanced
presence
spirit
Instrumente
generally
Februar
entirely
##ga
regular
thinking
authority
kommenden
Kenntnis
properly
components
##igung
Tätigkeit
presidency
Abschluss
verbessert
Forderung
competitiveness
suggest
Name
gelangen
##fragen
Initiativen
fun
##ls
Webseite
animal
ging
typical
reception
plants
character
Download
Sprachen
gern
entschieden
Brussels
coordination
hot
screen
pre
##lage
Because
cuisine
summit
Great
Garten
items
aktiv
sized
Arbeiten
fisheries
winter
actual
Forum
refer
map
##tive
Berichte
Air
Street
Währung
angezeigt
Unfortunately
funktioniert
Zeiten
durchaus
Kingdom
ausdrücklich
dealing
vorgesehen
Teile
besuchen
Installation
sagt
coffee
port
ständig
Abschließend
Jetzt
übernachten
Vergleich
welcher
wer
According
establishment
Regelung
difficulties
wollte
Fonds
hands
Herausforderung
booking
organisation
##Z
##res
Leider
becomes
threat
Warum
vehicles
Engagement
shops
betonen
lernen
permanent
##ol
Mitgliedstaat
dagegen
Dienste
numbers
machines
##eren
##programm
failure
stärken
##cy
speziell
flexibility
middle
stimme
origin
fixed
beschlossen
fragen
Status
Abgeordnete
generation
peaceful
##ort
meetings
trust
relate
informieren
Zeitraum
practices
Jahrhunderts
##ring
##un
##ning
ski
attempt
erstellt
told
informed
Besucher
Gebieten
Angaben
gekommen
wenigen
district
red
ISO
Once
combat
estate
consideration
vorhanden
geeignet
gefordert
himself
Afrika
display
applies
EADS
konkrete
Click
dank
stable
erleben
darstellen
Analyse
erklären
konzentrieren
signed
Komfort
Rede
picture
finanzielle
klare
lokalen
promoting
Stil
handeln
tradition
bodies
##schen
Kirche
Wissen
Last
easier
1994
betrachtet
aims
Madrid
parliamentary
Vielen
##führung
associated
reducing
Österreich
Hauses
entstehen
##hotel
experienced
veröffentlicht
##ating
Trade
models
trägt
connected
Breakfast
Worte
Beitritt
##he
Zweck
hält
database
gewährleistet
leader
verfolgen
75
Angesichts
fiscal
evidence
erscheint
anyone
Programms
benötigt
Dennoch
Health
difference
nächste
propose
forget
##ons
Prime
aspect
gerecht
resort
Forderungen
Griechenland
opposition
Aufnahme
African
Association
Santa
voice
election
Bush
myself
seriously
appears
Zweifel
ahead
2013
Saint
campaign
shared
dennoch
##ments
erfolgen
fund
Einigung
Pakistan
Casino
positions
ancient
impossible
structures
translation
consumption
format
differences
freue
spent
Herstellung
dangerous
humanitarian
schwierig
north
studies
brand
Antrag
Universität
Achtung
immediate
Banken
##ti
defence
combination
Klicken
Regel
PL
spending
unterschiedliche
Einhaltung
agencies
producers
England
Stellungnahme
door
implementing
houses
##isten
happened
black
legen
Ja
möglichst
Private
Mann
criminal
klicken
article
detail
Tour
##tt
Terrasse
continued
adoption
umfasst
relax
announced
unabhängig
spielt
##kosten
Belarus
concrete
##weg
statements
learning
carefully
television
##systeme
respond
Indien
truly
described
Irish
trading
instance
recognition
Arbeitslosigkeit
profitieren
absolut
##ko
##za
Polen
gegründet
calling
reasonable
Stärkung
architecture
Hintergrund
Europeans
sport
Sorge
erstellen
Schengen
Justice
Entwicklungen
Paket
courses
released
advance
Prioritäten
geleistet
genuine
PHP
beaches
skills
attractive
finance
Kommunikation
Gemeinsamen
territory
##tischen
Nachfolgend
eingehen
Lesung
raise
##sch
3D
reservation
Abend
arrival
kulturellen
Gesetz
diskutieren
guarantees
exhibition
trip
Stellen
membership
charged
deep
Fuß
Arten
fear
Such
Firstly
##igkeit
continues
improvement
Gleichzeitig
Vielzahl
Seine
verlassen
Texte
alte
Federal
Michael
einiger
schönen
unless
availability
Sehr
Sehenswürdigkeiten
inform
##markt
Formen
seek
religious
Rechnung
Dokument
bezeichnet
Aspekt
hören
Partnerschaft
denken
Hersteller
arbeitet
cards
feststellen
richtigen
##im
Democrats
Foundation
ve
Nacht
Links
Turkish
politischer
##ding
französischen
miteinander
element
greatest
garantiert
insurance
Moment
unternehmen
names
pictures
box
weiterer
##ds
##rat
allowing
Ideen
figures
Check
##tal
failed
übrigen
Problemen
combined
Titel
desire
##iger
##ee
possibilities
cars
wishes
Every
introduce
gewinnen
stock
überprüfen
recommend
Sinn
kept
participate
Globalisierung
obtain
##innen
corporate
Hamburg
unacceptable
Guest
PDF
forced
##ich
nearby
hingewiesen
relaxing
sale
tätig
Anteil
eingeführt
closer
Due
sun
manage
strongly
regionalen
Elemente
##ot
##rung
individuals
Kritik
überall
devices
Festival
##kommen
registered
Richtlinien
tasks
Greek
Bedürfnisse
Märkte
completed
Leistung
USB
Überwachung
core
Barroso
export
Deutsche
firm
packages
unfortunately
Tradition
absolute
persönlich
##ions
color
danach
claims
##verkehr
asylum
09
Verhältnis
##lichkeit
##ware
1990
Politiker
97
Yet
enables
Obama
break
Gott
Irland
zentrale
Home
Bewertung
angesprochen
org
Fortschritt
contain
geschehen
surrounding
establishing
science
Priorität
elected
erhält
surface
Betrieb
Vienna
compared
einsetzen
verfolgt
groß
Very
##ica
entitled
enormous
Eastern
erforderlichen
Verpflichtung
beginnt
Another
window
##sverfahren
button
größeren
disease
positiv
##art
perspective
biggest
Brüssel
täglich
union
weapons
bear
exercise
meters
Regelungen
##ps
ausreichend
platform
square
Beschreibung
shop
beauty
Technik
initial
##ability
attractions
coast
sämtliche
dedicated
britischen
Start
Entwurf
keinerlei
moving
##igt
bestätigt
condition
gegenwärtig
sort
##isieren
installed
stands
balanced
nennen
besitzt
sides
Institute
##her
länger
Prinzip
Reise
Peter
gain
Worten
aufmerksam
beteiligt
Verkehr
factors
storage
Geschäftsordnung
internationaler
Generation
einfache
holidays
vorliegenden
##punkt
großes
reliable
advertising
##daten
offensichtlich
komplett
Mitteln
unterstütze
Größe
Regulation
folgende
drawn
gestalten
memory
sensitive
extended
umfassende
massive
##fahrt
contrary
controls
Jeder
urgent
##nahme
##tte
Latin
spezielle
Netherlands
totally
##cia
Beteiligung
Foreign
zahlen
convinced
Can
court
luxury
attack
story
Risiken
Maße
outcome
device
Paul
unable
verbundenen
river
granted
##ak
##äre
Gründe
Absatz
##ms
Meiner
Austrian
##ration
gegenwärtigen
geschützt
Monat
comment
railway
Bus
betrachten
buffet
gutes
##je
tried
THE
Agentur
passed
commitments
Company
para
institution
stattfinden
Niveau
Treffen
angeboten
changing
decades
Umfang
##gang
Nevertheless
##rd
empfehlen
Option
warten
garantieren
mission
##ell
Palestinian
Risiko
zuvor
Data
advice
Lake
claim
800
conclusions
candidate
neither
##ba
verloren
Manager
Patienten
jüngsten
Erde
starke
##cher
Constitution
übertragen
PPE
beinhaltet
relativ
mass
Europäer
##ere
Gegensatz
Inn
kostenlos
limits
solcher
suite
##ver
wesentlichen
payments
maintenance
1992
##ists
flight
chosen
Aktionen
zusätzlich
engine
definition
Führung
background
church
targets
##mittel
Bahnhof
foot
independence
artists
Altstadt
Infrastruktur
Erklärungen
PT
Pro
Studio
Aufbau
interface
agency
99
Firmen
achieving
multi
perfectly
fire
deliver
entsprechen
laid
600
Korea
Methode
globale
Ereignisse
title
##ow
expression
obligations
ambitious
update
Unterkunft
Support
##ible
Fotos
Phase
Player
seven
organization
organised
Gebiete
mountains
##sche
Netzwerk
unto
Thus
guide
##net
langen
rightly
Mitgliedern
Palace
Bahn
remind
nearly
goals
Begriff
daraus
Botschaft
une
GDP
Flexibilität
Entschließungsantrag
USS
promotion
Hoffnung
governance
Realität
valid
Kompromiss
bath
zufrieden
IP
paragraph
Eindruck
communities
III
Wirkung
dient
96
continuing
vehicle
erfordert
##ux
obviously
Verständnis
Nachdem
intervention
Market
category
manchmal
physical
equality
seeking
##wert
honourable
Media
accessible
erhöht
route
Global
95
Bis
constantly
contained
Empfehlungen
hauptsächlich
speziellen
abgeschlossen
Anlagen
##burg
someone
Agency
Aussicht
Are
recovery
Resort
damals
Struktur
obvious
jungen
approximately
allgemeine
signal
zugleich
species
##haft
Inseln
Teilen
est
guter
Note
colleague
dynamic
48
Nutzer
liebe
asking
discover
una
successfully
surrounded
write
operate
situations
ban
Grundsatz
saw
Martin
race
Weitere
Rome
merely
unit
touch
Hälfte
outstanding
nationaler
schöne
Waren
informiert
Winter
furnished
möglichen
satellite
einzigen
Those
Rezeption
aircraft
Beach
##ster
expenditure
yesterday
##ya
wider
contents
nachhaltige
Gegenteil
substantial
Energy
object
prevention
##ual
Putin
Buch
smaller
las
##ach
Beim
geöffnet
putting
##mal
Beihilfen
zone
Internationalen
kaufen
recommendations
Control
attacks
Fraktionen
meaning
manufacturing
Städte
resulting
factor
##arbeit
geschieht
vision
Voraussetzungen
capable
acts
Grunde
bringing
planned
mittels
rapid
wodurch
lake
deutsche
monitor
Other
participants
##frage
##ish
einverstanden
250
Located
causes
mechanism
Dimension
ECU
##feld
festgestellt
spricht
##stand
08
waiting
leads
club
primary
Unternehmens
##ha
Environment
ideale
##board
##erung
bars
Summit
contemporary
Hinweis
treten
Königreich
landscape
##á
Ebenso
Unabhängigkeit
identity
photos
Ausland
1993
Both
guaranteed
binding
betroffen
beachten
weight
##sektor
A5
extend
sobald
strengthening
consists
spread
Vorteil
Licht
thereby
Dienst
persönliche
##gruppe
##up
grounds
Hauptstadt
refugees
teilen
vorgeschlagenen
Royal
Square
disposal
mag
pointed
Prüfung
driving
Material
compliance
##ran
##ves
Alliance
Island
Bedarf
glass
son
##US
Erhöhung
m²
install
phase
Vom
##iv
Trek
registration
sage
traditionellen
##verfahren
Fähigkeit
Männer
Bestandteil
Lebens
betroffenen
testing
responsibilities
Bewegung
investments
Sweden
acceptable
consensus
##tische
##möglichkeiten
examples
##ht
extreme
##cs
##ction
07
##stellen
Rules
Zahlen
industries
##maßnahmen
Farben
zählen
praktisch
##wirtschaft
leadership
Landschaft
multiple
brings
##ker
andererseits
##fe
Telefon
explain
Any
Maria
besseren
Rechts
il
regelmäßig
Liberalisierung
adequate
conclude
33
Live
Financial
Ruhe
Trotz
fuel
anbieten
association
host
##per
patients
Charakter
Veranstaltungen
##ino
junge
wichtigste
##EN
schools
Klimawandel
schneller
kürzlich
pleasure
ship
Ordnung
früher
technological
Gesetzgebung
beschäftigt
turned
Reaktion
begann
Welche
sets
convenient
previously
primarily
Laufe
addressed
##lin
##technik
Klimaanlage
Methoden
##ings
##mm
smoking
##uer
sonst
Dutch
demokratische
reagieren
##ets
##izing
expensive
notice
Aufgrund
weiteres
Überprüfung
Serie
Format
vorschlagen
Nice
talks
Amerika
spa
JavaScript
fällt
determined
Grenze
golf
Ratspräsident
Details
Angebote
Two
##ron
Koordinierung
Jean
Thanks
Diskriminierung
radio
##lose
liability
win
sichern
##pt
Westen
herzlich
qualified
Day
remove
freie
36
delay
named
Versuch
evaluation
books
seitens
representative
Anpassung
echte
kinds
versions
160
dimension
keeping
requested
Romania
##rate
nations
store
White
Liebe
accounts
angeht
default
Despite
##nis
Teilnehmer
vollkommen
Bau
##zentrum
bedroom
##ellen
diskutiert
steel
David
##ei
Fälle
##ären
Zimmern
existence
discussing
opposite
sanctions
Mehr
Luft
letter
##istische
delivered
##ire
orders
verlieren
zunehmend
Gefühl
Willen
ländlichen
hergestellt
spaces
Strategien
seien
##Innen
einzelne
betont
Roman
optimal
weltweiten
affect
southern
führenden
gewählt
##dy
User
Gesetze
Körper
author
prepare
Gold
mode
34
ehemaligen
audio
##bringen
##karte
##ix
Tatsächlich
##arbeiten
positiven
akzeptiert
Einklang
bewegen
mechanisms
Time
politisch
Freunde
dritten
starken
copy
diversity
Britain
##ties
vielmehr
##out
Gästen
Stadtzentrum
pour
ergeben
piece
Sanktionen
finde
Unterschiede
length
verstärkt
Dokumente
Via
Studie
dealt
##nischen
Rotary
Kombination
intensive
##are
helping
Vorbereitung
Zustand
Umständen
urban
##nische
feeling
shape
treated
Tiere
launched
relatively
sicherstellen
Stunde
significantly
##ute
Spiele
Tod
BIP
Enjoy
rail
##lla
strength
übernommen
diverse
Teilnahme
wiederum
fordert
president
##istischen
taxes
Wien
drugs
berühmten
onto
##welt
except
register
Klima
moved
mutual
EC
Geist
amongst
noise
Post
Prodi
manufacturers
fruit
sur
Delegation
##ek
Süden
##ins
rejected
conduct
##nten
schließen
Schule
Anliegen
knows
Diskussionen
nochmals
politicians
##cken
runs
Architektur
lose
Berücksichtigung
profit
##ative
##preis
represented
expectations
fand
Test
##ries
derzeitigen
##bel
##ny
##ul
abhängig
improvements
Dadurch
highlight
consultation
Before
Munich
##mer
urge
nötig
heavy
Bedenken
skin
##ges
Grundrechte
führte
Kyoto
Lord
Link
Wirtschafts
sieben
Express
recommended
höhere
Anlage
Eigenschaften
eight
Untersuchung
eye
attitude
Vielleicht
keiner
truth
Minutes
Schäden
##anlagen
gewisse
obligation
##leben
37
Wegen
privacy
experiences
finding
unternommen
Definition
Kunde
approval
Robert
anerkannt
Poker
sold
felt
Fischerei
consistent
Freude
##licher
welchen
Kollege
##smaßnahmen
Mein
expertise
läuft
bildet
engineering
Verhalten
error
trotzdem
wood
arms
##ving
Java
Voraussetzung
Effizienz
Allgemeinen
gehalten
genauso
helped
zustimmen
compensation
reply
bequem
appeal
requests
streets
Übereinkommen
befassen
trees
Nachfrage
konkreten
largely
##port
Fenster
Sitz
speakers
competence
Foto
cheap
presentation
höchste
betreffen
##hof
##pen
regionale
reflect
Datenbank
charming
Pool
Grundsätze
##one
burden
##management
emphasis
resolve
1991
Wahrheit
##ria
EG
reichen
Antworten
suffering
06
River
destination
Verfügbarkeit
Verträge
120
units
##vo
bedrooms
stone
hoher
niemand
temperature
behandeln
Find
basiert
forest
Suite
jährlich
quick
umfassenden
##hafte
older
Ob
diseases
millions
conditioning
whatever
##ld
Klasse
##ped
websites
extension
Marketing
George
regret
Küste
kleiner
##ana
heraus
Karten
##stadt
verlangen
Technology
School
Leitlinien
furniture
Völker
fit
##produktion
Chamber
constant
Kind
browser
##ral
1989
entered
##icht
Take
reicht
##and
Verbrechen
intention
inzwischen
recognise
affairs
exists
tests
55
comply
##time
03
Zugriff
disaster
officials
Plaza
nation
Auftrag
dishes
##ff
Airbus
italienischen
##00
fail
ziemlich
renewable
helps
output
stations
##ser
marked
wealth
Apartment
Japanese
##ris
articles
danger
sofern
arrangements
dinner
bedarf
substances
Formular
Gedanken
applicable
Dublin
operators
Entwicklungsländern
bezieht
##see
parallel
gestern
##rechte
Waffen
happens
historische
wichtiges
##uren
emphasise
Experten
faced
##smöglichkeiten
Schaden
fantastic
Kategorie
advantages
Nahen
Werk
objects
wait
wenden
latter
Instead
cm
##hi
##sion
cold
appreciate
Old
##zer
sell
##schutz
##mo
blue
Ohne
Maßnahme
command
##gel
WC
grundlegenden
A4
Top
bekannten
Absicht
dining
ID
Maschinen
deiner
Special
Empfehlung
involving
begonnen
fighting
beträgt
centres
mobility
print
Welcome
organizations
Use
Skype
reaching
erscheinen
fraud
Alternative
gelungen
taste
liefern
Materialien
2012
Erwartungen
Angriff
Paper
leaving
Norden
entlang
personally
texts
valuable
##stellung
entertainment
##box
##sprozess
senden
naturally
##ssystem
kurzem
delegation
respective
##tation
Revolution
creative
Ministers
Charter
mid
Shop
whilst
rasch
Boden
zusätzlichen
covers
MySQL
exclusively
peoples
museum
tours
Beifall
erhältlich
##urs
Rule
criticism
Landwirte
opposed
Safety
Strategy
willkommen
Essen
east
Regime
Canada
solve
##ics
##ini
##gebiet
Front
volume
##gehen
producing
recognised
##ey
##od
Tourismus
figure
rechts
Where
##king
waters
determine
Anfragen
strategies
Mittelpunkt
handling
temporary
looks
Swedish
outdoor
Los
protecting
##qualität
München
schwierigen
Dort
##tag
Action
increases
treaty
gefördert
confirmed
Normen
controlled
Schweden
42
verändert
Englisch
Flash
amounts
Wirklichkeit
flat
allgemein
wesentliche
discovered
Tagung
eröffnet
residence
acht
willing
amerikanische
collective
Ferner
firstly
bedeuten
künftig
Ambiente
leisure
unmittelbar
zweifellos
1000
Einstellung
entdecken
laufen
weather
##liste
niemals
Over
involvement
voller
Co
##ard
eigenes
eng
interessiert
tut
USD
carbon
##spolitik
05
besitzen
obtained
vous
Van
grundlegende
journey
hilft
natürlichen
ernst
exceptional
Verbesserungen
automatic
derartige
hit
Beispiele
Good
Band
Real
Verkauf
combating
##ice
##ay
##enden
impressive
zuerst
mandate
Strukturen
offices
healthy
hostels
38
##geht
##í
flow
removed
##lagen
GNU
##seite
Krankheiten
Straßen
Unterschied
equally
meist
##zug
soft
##sing
entstanden
offenen
Angst
schönsten
constructive
contributions
Beratung
abroad
passengers
awareness
password
##ks
couple
##ende
Fax
einerseits
serves
dans
directives
reserve
worse
chain
##gruppen
näher
issued
menschlichen
NL
happening
maintained
Agrarpolitik
investors
teilnehmen
communications
jemand
newly
remaining
King
hervorragende
Badezimmer
Steuern
erweitert
Monetary
Croatia
##form
depends
schön
weshalb
restrictions
Bay
spanischen
Non
##ses
fühlen
standing
kulturelle
repeat
eyes
ausgezeichnete
umzusetzen
launch
##hip
reserves
bemüht
reden
##nte
##arten
##lar
Their
charges
perform
regulatory
laden
contracts
musste
neuesten
defend
##ese
einfachen
laut
öffnen
dritte
Polish
Abkommens
Vision
Hafen
gender
höher
anstatt
discharge
inflation
sorgt
Pflicht
occasion
watch
Justiz
Thomas
Problems
requirement
Künstler
Dorf
Luxembourg
boat
falsch
Washington
Black
ursprünglichen
betreffenden
emerging
##uring
lovely
Überzeugung
Stellung
Netz
entscheidend
höchsten
schreiben
Radio
prove
Bucht
creates
preparation
##ven
chinesischen
identify
kurze
Bulgaria
stimmt
gelegt
vast
colour
Ladies
verursacht
album
debates
installiert
rapporteurs
##ez
präsentiert
ausgezeichneten
trifft
Emissionen
bekämpfen
ruhigen
returned
richten
Fähigkeiten
Kamera
Under
##rin
Ratsvorsitz
aufzunehmen
Ab
Ausstattung
Mitgliedschaft
##kraft
##llen
Dusche
conflicts
zufolge
Marina
Verbindungen
erheblich
Websites
migration
Kooperation
##ans
Kopf
abgelehnt
vieler
Arab
Second
liberalisation
focused
65
UNO
Dem
characteristics
Konflikt
James
owner
continent
soweit
Messe
##ab
Anbieter
balcony
##ade
cutting
lautet
doesn
hundreds
rent
##stelle
assist
Eltern
##park
Executive
Nein
classic
##zt
Tisch
opinions
Geräte
Punkten
Card
messages
Wellness
Entwicklungsländer
künftigen
decorated
gone
precise
Erholung
holding
renovated
walls
##systems
drink
Ausgangspunkt
Ausnahme
Award
info
spring
faster
##nde
Kann
Mensch
universal
##ations
Projekten
min
ultimately
Alter
Strukturfonds
blood
wind
au
organisiert
resolutions
durchzuführen
erlauben
39
organized
gets
übernimmt
700
riesigen
schafft
surroundings
##by
facilitate
mögliche
##ros
Bestellung
##po
blog
Jedes
Übereinstimmung
vorgenommen
##eln
Gebrauch
Harmonisierung
Music
involve
Institution
##di
##ence
conducted
verlangt
wissenschaftlichen
extrem
gelöst
sauna
Book
Nachrichten
##zeiten
funktionieren
achten
02
Austausch
Handels
Mexico
Beweis
recommendation
##ged
Brazil
nachhaltigen
seeing
ergriffen
era
##tel
parents
welfare
verschiedener
Hostelsclub
Will
grow
Festlegung
Hall
drawing
zentralen
wall
Wein
transportation
Des
properties
zählt
west
dir
##10
ethnic
meat
##ley
customs
Las
zugänglich
KMU
operational
Chinas
gratulieren
Sauna
Arbeitsplätzen
staatlichen
hardware
rechtlichen
Verringerung
electricity
zugunsten
entwickelten
Rumänien
mostly
starten
##sed
Get
minority
award
counter
##ES
Abschnitt
Al
regularly
##ball
breite
geschrieben
Partnern
topic
Power
firms
Gentoo
impression
Gestaltung
MEPs
Vorschlägen
WLAN
annehmen
intend
career
Faktoren
joined
##cing
Procedure
emergency
fill
früheren
schnelle
Soviet
somewhat
Vice
mark
proud
pollution
define
Ratspräsidentschaft
aufgefordert
##und
Element
ausgeschlossen
bottom
widely
##Q
bezahlen
license
##lia
performed
Veranstaltung
sinnvoll
Israeli
##bo
Beziehung
Farbe
Umgang
terrorist
Ausführungen
##ory
glad
Änderungsanträgen
##bus
meant
Wissenschaft
seat
westlichen
buchen
noted
verringern
block
Cyprus
Mac
deals
BSE
fee
submit
##bedingungen
##nes
subsidies
Church
frequently
öffentlich
Drittländern
##preise
dates
Given
divided
Zwei
Earth
Prinzipien
fordere
interior
parliaments
Wird
##ky
Gesellschaften
umgeben
Programmen
Act
band
islands
visa
Ausstellung
Maß
corruption
driver
depending
connections
Eurozone
Life
follows
ausgesetzt
cycle
avec
demanding
49
contrast
##ification
Gleichgewicht
kurzen
settings
Schwerpunkt
hervorheben
sehe
verabschiedet
personnel
unmöglich
displayed
verhindert
Übersetzung
friend
Framework
höheren
intellectual
zuständigen
Report
confirm
assets
##hin
Deutschen
durchführen
updated
Gegend
Ausführung
Außenpolitik
notwendige
sodass
Kilometer
##genommen
letztlich
northern
##ette
##heim
Browser
Drittens
appointed
techniques
Geschäfte
hängt
russischen
effectiveness
Congress
##satz
SMEs
beschränkt
##bahn
##rischen
ought
##bit
Verteidigung
edge
verbringen
##ys
bestätigen
answers
beglückwünschen
father
profile
Vereinbarungen
##ón
Protection
yes
ticket
Garantie
Zentralbank
drivers
finished
##ious
formal
##geben
bezug
metal
transition
Schlafzimmer
maintaining
Werbung
resistance
Buchung
##NG
Whether
channels
library
eastern
Asien
##use
mini
vorher
##ius
##politischen
Schluss
Image
Sonne
prefer
visible
Komponenten
sexual
statistics
earth
Nord
Planung
bilateral
hair
Minderheiten
windows
##är
Handeln
compatible
suites
Copenhagen
vacation
##ied
gezogen
Sony
owners
produziert
schlecht
##losen
Alles
Beiträge
Plenum
legt
understood
ausgesprochen
mitten
proof
signs
passiert
imposed
remote
##fahren
Gerichte
gezwungen
direkten
heritage
volle
Budapest
Plattform
Rom
castle
verleihen
showing
verändern
Yes
drug
Food
planet
einzigartige
fashion
Ausgabe
Hostels
interessante
functioning
Signal
##plan
grateful
verstanden
Optionen
cable
declaration
arrive
##ía
Fi
demonstrated
##à
Aktion
Hungary
corner
Regierungskonferenz
involves
Besonders
Morgen
aufnehmen
gold
tourists
valley
##km
Sorgen
britische
entsteht
rapidly
Einbeziehung
demonstrate
echten
welchem
wollten
Well
##sh
Chancen
Ziffer
angemessen
Verbot
ongoing
locations
Einstellungen
Freiheiten
##stein
delighted
hall
listen
starts
entrance
04
Funds
Portuguese
contacts
relaxation
##lung
##ssen
pieces
##aus
hostel
lounge
trafficking
##anlage
NI
heating
invite
##ag
careful
wines
OF
##linie
##ose
Gespräche
Noch
collaboration
vollständige
accompanied
inhabitants
kämpfen
leiden
percent
Update
apart
heat
##druck
Europol
oral
cash
serviert
proved
visited
Edition
Neue
definiert
Arbeitsmarkt
expert
Gründung
geprüft
indicated
Studenten
reject
presents
spoken
##house
##so
concluded
Perhaps
Show
spezifischen
visiting
Veröffentlichung
Prague
explore
ungefähr
Wi
solange
Identität
erleichtern
Umfeld
flights
pension
Ltd
afternoon
Charta
reported
tickets
Haftung
artist
##straße
exciting
Stück
stored
##ras
##ON
begrüßt
expansion
##ably
angemessene
printing
##iten
saving
settlement
Marktes
nahezu
provider
Wünsche
theme
Selbst
strict
educational
überzeugen
Fischer
##det
bestehende
Friday
farm
Bemerkungen
erinnert
dich
dürfte
occur
##ants
erreichbar
immigrants
Baltic
familiar
44
##bly
Rest
Studien
overcome
##tten
Jede
gardens
stronger
##ime
partly
Kräfte
passenger
possibly
Maastricht
Mobilität
Einkommen
##wasser
bemühen
Kurs
geltenden
sharing
Client
Insbesondere
cosy
plenty
Politiken
geboren
kostet
exit
43
crimes
Zielen
fitness
quarter
rising
jenen
replaced
sorgfältig
heutige
hinzufügen
raw
Women
##iere
Deswegen
##bank
Einwanderung
Verbreitung
copyright
ferner
facility
feed
jegliche
Untersuchungen
assume
usual
woman
foundation
department
Konsens
super
minorities
##AL
##wesen
Bedrohung
ausgeführt
##handel
Öl
Main
News
rock
Webseiten
Ware
Gerichtshof
spot
##ap
recorded
Belgium
containing
Je
Theater
Or
##ura
Charles
Newsletter
beruht
Werke
behalten
depth
##une
Vorgehen
vorlegen
committees
credibility
solid
gebaut
Digital
deficit
oriented
destruction
Taiwan
verehrte
tackle
Northern
bestimmen
replace
Port
documentation
Hostel
AKP
match
##reich
##ric
Krankheit
gespeichert
Lebensmittel
films
declared
Vorschlags
towns
por
Amendments
slow
awarded
##ates
##dienst
Puerto
Games
elsewhere
größer
judicial
verurteilt
Pact
Preisen
Sollte
übrigens
Polizei
Vorstellung
ersetzt
youth
##chten
Zwecke
respected
centuries
perfekt
##ci
forum
Sollten
ES
##aten
transactions
##alen
banking
definitely
Question
occasions
battle
facts
##back
Mission
direkte
Balkon
Blog
Mobile
adopting
entscheidende
jener
Gaza
Islam
##logy
gewährt
wann
owned
##nung
##ó
determination
gespielt
configuration
stylish
log
scheme
##room
##ming
verdient
Oder
reduzieren
##haften
##werte
beraten
##stoffe
citizen
Schulen
professionals
##ete
##lation
eventually
##gabe
Sein
speaker
desired
maritime
rein
Kauf
Town
died
##mäßig
competent
constitution
routes
Anschluss
Wohlstand
##bt
Städten
Training
abgestimmt
arrived
Bars
Sektoren
erfolgreiche
distributed
gallery
channel
phrase
shares
einheitlichen
exports
vulnerable
Besorgnis
##ned
taxation
##ystem
sending
Federation
manufacturer
Description
nights
grundsätzlich
chemical
encouraging
fehlt
organisieren
constitutional
Malta
Law
Kapitel
französische
Versionen
brief
toward
adults
enjoyed
erhebliche
##ified
Nachricht
Without
Don
Applause
sugar
##uch
##zimmer
Mitarbeitern
corresponding
AIDS
Single
Network
argument
slightly
beschäftigen
correctly
Audio
Set
spectacular
vorstellen
verstärken
Within
berechtigt
formed
verkaufen
Following
courts
weekend
inclusion
subsidiarity
Bereitstellung
Hohen
##ea
Selbstverständlich
Staates
identified
##sätze
##ción
Inc
mother
wirksam
Hungarian
individuelle
vorhandenen
stehenden
##iche
kamen
component
inklusive
m2
satisfied
Hamas
globalisation
nunmehr
western
##ats
View
##bild
straight
Atlantic
Box
secret
##spiel
##setzen
Zone
##ick
Gewicht
##bach
##länder
Freunden
Valley
individuellen
theory
##name
##ona
generated
extraordinary
Auge
Adobe
exception
installieren
zusammenarbeiten
addresses
tea
Erzeugnisse
suppliers
army
klaren
Canon
beigetragen
64
Nos
Ungarn
productivity
rental
providers
considering
einfacher
##ordnung
miles
Mrd
Structural
Kontrollen
##´s
##ée
division
grant
Assembly
absence
##rie
excessive
preparing
Touristen
Vater
lots
##pa
##ular
dependent
##book
HTML
Salzburg
EL
Trump
##programme
Captain
schlägt
strategischen
##TA
plays
Grad
entscheidender
##els
##falls
Männern
Year
Islamic
##hilfe
Einheit
##ess
Beschluss
Like
behaviour
milk
Brasilien
Viertel
lists
lokale
aussprechen
Bemerkung
university
magnificent
marquis
##MS
Egypt
Sunday
VAT
patent
##fer
Mangel
Vorsitz
außerordentlich
gestaltet
verbinden
erfolgreichen
resolved
sensible
wiederholen
hundred
roads
traditionelle
##lon
##nts
##és
Anti
bestimmter
substance
actively
##namen
suffer
##bildung
##cke
Budget
Wohnung
proposes
##dad
Videos
unverzüglich
Systemen
pursue
bislang
##produkte
appeared
erhielt
##IS
wrote
Exchange
domain
Katastrophe
Regional
##ene
Balkans
housing
impose
trend
##versorgung
decisive
enhance
angegebenen
legitimate
lessons
wirtschaftlicher
moral
Kontext
Schlussfolgerungen
referendum
Ansichten
##ichen
nahm
investieren
tobacco
Americans
EZB
beschrieben
employed
relative
Flüchtlinge
äußern
plenary
Gran
eingereicht
betreffend
##°
41
##teil
Marke
artistic
Lieferung
deposit
##wald
ensures
savings
##aries
carrying
genannte
vieles
##punkte
everyday
##hrt
root
##si
vorbereitet
ähnlich
##fälle
updates
thousand
zentral
examine
par
##fläche
duties
supplies
Zusätzlich
großem
lift
Stimmen
offiziellen
winning
##light
Erstellung
concepts
subjects
virtual
ruhig
enabled
invest
prosperity
spoke
einig
##buch
BMW
beteiligen
interpretation
Genehmigung
solely
didn
drop
Einwohner
drinks
Page
hervor
##cent
Spaß
Thirdly
##treffen
Know
abuse
Schlüssel
Positionen
##sse
regarded
##ai
topics
traditions
##enen
gained
Dauer
ad
proposing
Konsequenzen
Rechtsgrundlage
wonder
voluntary
##ok
Legal
Wirtschaftswachstum
vermitteln
applying
Konto
Sicherung
ships
elektronischen
politically
##heiten
##rische
consent
Zivilgesellschaft
solches
##ded
##tum
acting
weitgehend
##zing
Garden
societies
Apple
della
Director
kleines
##ain
assure
description
Content
##lauf
wiederholt
gewonnen
greatly
erzeugt
renowned
sozialer
villages
Korruption
mittleren
Glaubwürdigkeit
proven
representation
weist
Thursday
verkauft
Bulgarien
departure
filled
packaging
proceed
##hr
nevertheless
suggested
philosophy
##ziehen
gewissen
mussten
Gast
integriert
anwesend
label
Beschlüsse
paying
##tik
langfristige
luxurious
shipping
##dorf
Nummer
countryside
Distribution
Überlegungen
Modelle
Pakete
##ov
gearbeitet
46
herrscht
machte
wunderschönen
##ika
Lounge
treat
Budgets
effektiv
Reduzierung
attempts
sought
einzigartigen
Gegenstand
comparison
Gefahren
##ress
Provinz
eingehalten
suggestions
enabling
Deutsch
##istic
Having
liefert
Verlust
Kroatien
erlebt
teams
##führen
2015
receiving
trial
##ulation
module
periods
##gs
Eigentum
Secretary
lag
##hnen
##laufen
##tein
85
Feld
Gewährleistung
Betrag
Kulturen
schicken
zuständig
liked
Next
aktivieren
angegeben
Prozesse
desk
stolz
killed
Agriculture
komme
verbindet
Besides
handle
satisfaction
genügend
Energien
Menü
arguments
decade
bound
depend
Darum
Verletzung
führende
##val
Berg
resource
Professor
bereitgestellt
fourth
bridge
COM
Trotzdem
entwickelte
specified
scene
##ase
##ens
Schiff
##cal
##rte
Glück
electric
stellte
difficulty
realistic
supplier
manche
Quality
motor
##sprogramm
anbelangt
ursprünglich
##nden
Erfüllung
##häuser
imports
##ward
Vorhaben
Anlass
beobachten
Asian
cleaning
erstmals
import
##ery
colours
cuts
pure
beantworten
Islands
doors
manager
mix
verteidigen
forests
twenty
##ham
Monday
invited
letztendlich
reservations
ACP
Anstieg
disabled
langsam
##lösung
farming
inmitten
succeed
behaupten
labor
religion
##end
Castle
Family
##ology
Cup
Gericht
ausgerichtet
finish
Holiday
Space
##OS
ECB
Strasbourg
angesehen
directed
weak
##ologie
tennis
Finanzkrise
Guests
##logie
##е
aktive
count
Tages
Gerät
konfrontiert
Stoffe
##ator
Les
ice
Ganz
##mi
destroyed
input
remained
Kollegin
institutionellen
leaves
##ud
upper
##halten
##rum
Praktiken
fuer
Schiffe
gelingt
Parkplatz
##if
bekommt
ports
##и
Grünen
##wa
dream
fr
Belgien
jpg
##ah
ersetzen
Wo
ausgezeichnet
Gerechtigkeit
breiten
##ua
überprüft
##version
Amt
Marken
Based
Kontakte
##reisen
Kirk
##ara
##ray
betreiben
functional
OS
constitute
einzusetzen
permitted
##hl
Herz
reduziert
cooperate
hardly
Education
missing
ordinary
supposed
individuell
allzu
Perspektive
staatliche
Australia
homes
##ias
##lten
Geschmack
entspannen
spezifische
IV
auftreten
skiing
zukünftigen
Suiten
continuous
recognized
barriers
wissenschaftliche
bedeutende
confirmation
contributed
negotiating
Thailand
Entlastung
iPhone
movie
preventing
##nik
##rer
Email
Tools
freedoms
publication
tritt
Wählen
Ausmaß
Master
Nachbarn
delicious
justified
obliged
suffered
welcoming
militärische
unterscheiden
##а
Playa
driven
##red
Situated
##ktion
Blue
klein
movements
significance
directory
entschlossen
refers
Branche
Tätigkeiten
surely
##ces
trips
künftige
wireless
lasting
##tro
Büro
Finland
Prozesses
legally
tree
complicated
selling
##ique
Dafür
festival
illegalen
PSE
konzentriert
lived
##vent
Verarbeitung
##macht
verfügbaren
scheinen
wohnen
Fahrzeuge
Hardware
Regierungschefs
optimale
whereas
none
offene
Mut
Through
##tisch
welcomed
##ausschuss
beendet
rare
##legen
Gerade
appearance
##ico
Stockholm
militärischen
Gehminuten
Gemeinde
##reise
hierbei
master
##politische
##rweise
Place
Vietnam
gestattet
index
musical
patient
##ulate
instructions
C5
Märkten
Situationen
Plus
eat
unforgettable
ähnliche
##wagen
Berliner
sounds
Gang
overview
female
##side
Kanada
Who
begrenzt
characters
liberal
UNESCO
enterprise
Be
Zug
looked
gefallen
tables
harmonisation
vorgesehenen
##AS
NGOs
allocated
deswegen
Pläne
clubs
Veränderung
Widerspruch
sustainability
Runde
si
vorzulegen
unterstreichen
Allianz
Organe
generate
turning
##its
Ablehnung
Armee
director
internen
##isches
Freitag
menschliche
##plätze
versichern
verteilt
Internationale
SV
Venice
supervision
specialist
Road
##gy
fulfil
Stability
fees
##dung
Socialist
Desk
football
ye
cells
47
sogenannten
tested
##ify
Hans
gap
##hren
proceedings
Rio
finanziert
lunch
lieber
welcomes
angepasst
Sammlung
alt
originally
##region
prime
wild
##tung
eurozone
ha
showed
Facilities
freundlich
größeres
Sachen
Schloss
Lizenz
kontaktieren
zukünftige
LateRooms
MP3
Standort
bisherigen
##garten
Ausflüge
Corporate
einbezogen
langfristig
mitteilen
parliament
Abschaffung
Stiftung
##llo
Tip
forthcoming
##q
Schweizer
geboten
studio
Project
reflected
Auditors
anhand
dollar
faith
cancer
empfangen
everybody
modules
safeguard
decline
explained
Betten
anschließend
ended
indicate
Institut
geprägt
fans
Genießen
programming
1st
ergibt
videos
Konflikte
Zuständigkeit
firmly
Kapital
beings
enhanced
parameters
regardless
sichere
##zeichen
unterzeichnet
Jugend
##han
adapt
dark
introducing
Andere
wellness
Sohn
HIV
Jahrzehnten
Rückkehr
hospitality
shift
stars
##organisation
unterliegen
vorgeschlagene
Mittelmeer
Weiteren
abstimmen
##tra
euros
transmission
universities
imagine
Leitung
Volkes
frame
obstacles
##work
B5
classes
ranging
amenities
nine
reflects
teile
Indian
König
saved
museums
revision
##gung
accurate
labelling
Frühstücksbuffet
errors
AND
Tibet
hingegen
##haltung
Piazza
worst
##legung
Saturday
generations
##zed
Presse
Album
strategische
Ebenen
##isierten
##sicherheit
##tet
Geschäft
Mutter
Richard
losses
Zeitung
sovereignty
##all
##halt
##ira
Planeten
Should
belief
sections
Alexander
Freizügigkeit
Übernachtung
Abhängigkeit
Geneva
Kaffee
Quellen
Schon
Serbia
##geräte
Reserve
bike
investigation
covering
considerably
hearing
stocks
vessels
##ened
Ankunft
Sind
verdienen
##TE
##angebot
Stuttgart
könnt
ministers
normalerweise
song
##vi
Dritten
sum
52
##ionen
##let
Führer
Tor
exploitation
Culture
realise
hochwertige
##gebracht
##volle
Willkommen
Erinnerung
equivalent
schlagen
songs
Donnerstag
internationally
united
##era
acceptance
collected
interessant
Christmas
vorbei
umfangreiche
##rten
anschließen
che
Joseph
praktische
##op
Respekt
Vorlage
##cker
Abendessen
##chte
Tourism
exclusion
präsentieren
##reichen
combine
natürliche
snow
herunterladen
Balkan
##ado
checks
undoubtedly
Administration
Customer
ride
remarks
unabhängigen
notes
computers
Redner
functionality
Reisen
disasters
##PC
IMF
amazing
dignity
severe
##bs
##informationen
Aktionsplan
##min
wonach
##anten
##zahlen
organic
Hong
Mallorca
Investoren
vereinbart
Erst
Papier
besonderer
kontrollieren
Consumer
RO
managing
hohem
believes
Sound
zieht
1980
enthaltenen
restructuring
disk
##ane
endorse
erfordern
adapted
dead
gebeten
gerichtet
selten
ernsthaft
##dienste
##wn
Befugnisse
Does
reaction
raising
##IN
##swert
##zung
dargestellt
trends
Gleichstellung
##nic
19th
Steuerung
normalen
Binnenmarktes
Il
Quelle
fleet
läßt
##ip
romantic
Maschine
##entwicklung
##netz
Rechten
penalty
behoben
push
sprach
##märkte
Haushaltsplan
beschränken
##einander
##gibt
##TS
Volksgesundheit
hervorgehoben
Georgia
Ski
ou
##tage
massage
subsequent
Verteilung
griechischen
sauber
##ucht
rechten
##SA
grosse
Berichten
Kong
externen
##fonds
Staats
learned
XP
edition
gewähren
zugrunde
anzuzeigen
fördert
##finden
Börse
Zahlungen
violations
pretty
enorme
jetzigen
##material
##ola
##zahl
Orte
dankbar
everywhere
excluded
mittlerweile
##bad
Opposition
hervorragenden
coordinated
festzulegen
travelling
Beteiligten
Commissioners
deeply
gemeinschaftlichen
minister
Ursachen
Vorausschau
Academy
protocol
##mes
verboten
vorliegende
Wochenende
##cks
##weisen
restore
überaus
##pass
connect
profits
Großteil
Saudi
clause
##rio
Cookies
Full
restored
##ille
Meines
Würde
entgegen
accident
layer
Sudan
consulting
symbol
metro
supplied
Boot
##rry
Entspannung
##tz
Geschwindigkeit
Meeting
wirksame
Generationen
Amerikaner
Arbeitsplatz
geraten
rechtliche
wirtschaftlich
##eo
##karten
##hlen
Wandel
zurückzuführen
Fahrt
erfreut
underground
Haut
untersucht
##field
Heizung
lobby
##ssysteme
gewünschten
anywhere
geplant
Schulden
frühen
wahren
erwähnen
freely
ließ
threats
Teams
humanitäre
sheet
##ore
Kriminalität
##lands
compact
eignet
nachdrücklich
umsetzen
CHF
Faktor
transferred
Among
kg
Motor
satisfy
unabhängige
dry
executive
##ult
steigen
Kontinent
promise
Außen
##paket
Beide
courage
stages
##zig
Science
Kampagne
Bereitschaft
Opera
Vertrages
existiert
targeted
Rechtsstaatlichkeit
strengthened
##ill
Schönheit
villa
Darstellung
Reservierung
festgelegten
Passwort
Tal
nbsp
hoffentlich
unterschiedlich
sicheren
SAP
boost
Source
einheitliche
struggle
Location
leichter
##gestellt
su
Umweltschutz
unfair
concentrate
cultures
Agenturen
B4
tief
##IC
necessarily
Tausende
türkischen
##fahrer
Eingang
holds
letzter
Denmark
hierfür
überein
Symbol
beenden
pick
arise
ordered
##rated
Währungsunion
undertaken
Gemeinsame
##rad
Industry
##teile
Fernsehen
bewältigen
einzuführen
##lf
Stärke
treatments
##viertel
Bord
bedanken
Öffnung
getragen
Kern
Minute
komplette
##sbereich
##tta
rufen
IWF
Rock
##eten
Frist
prospects
sight
speichern
##als
begleitet
acknowledge
überwinden
##ante
Gas
reliability
51
Casa
Vista
Stock
sights
##ame
##räume
##via
Museen
designs
plastic
reconstruction
fort
Dritte
Euch
erweitern
aufgebaut
narrow
##ski
laufenden
fishermen
Zürich
damages
eingegangen
Doha
Nero
##ausschusses
##ole
##szeit
floors
##ui
Kandidaten
stattfindet
student
Kreditkarte
Luxemburg
perfekte
Potenzial
sex
##werke
##over
##rk
solar
processed
schweren
##LE
College
Holz
Parameter
Spielen
heißen
promised
##ckt
##gekommen
##liegen
Labour
Verlauf
anniversary
hast
##tto
Hauptbahnhof
Notes
digitalen
engaged
Dass
Florenz
IN
angewendet
Mexiko
Friendly
magazine
keinem
##RS
Bearbeitung
Golden
aside
overlooking
Tool
assembly
Protocol
##J
Kategorien
bauen
klassischen
senken
gestärkt
Syria
cool
picturesque
schnellen
##verwaltung
Kompetenz
factory
zerstört
##ures
Registrierung
effizient
twice
geäußert
##isierte
Wesentlichen
##träger
##ßt
Beseitigung
Gelder
cell
vornehmen
Bestimmung
Dokumenten
Herbst
thermal
Anwender
Mir
antworten
fairly
komfortable
##our
Erhaltung
approve
candidates
reputation
##tter
collect
switch
Autobahn
Debatten
Niederlanden
belong
shadow
territorial
langfristigen
teaching
budgets
selben
##oo
briefly
individually
intelligent
Somit
grossen
province
Society
recognize
superior
##mente
Staff
hiking
wünsche
Events
Tests
attached
till
fertig
neighbouring
portfolio
sleep
voraus
Sierra
cast
entdeckt
catch
negativen
umfassend
entering
stärkere
##ender
Resolution
assess
essentially
scientists
Freund
causing
flows
qualitativ
Wirtschaftskrise
Bibliothek
Mark
korrekt
surprise
Louis
formats
panoramic
victory
Strecke
birth
highlights
nützlich
normally
gesetzlichen
mistake
phenomenon
##ländern
Innenstadt
Investment
tracks
dei
##agen
conventional
Ägypten
Zahlung
Zypern
außen
eingestellt
##zo
Max
grown
##lan
diplomatic
lay
gleichermaßen
usage
Vereinfachung
occurred
Fluss
Inflation
Sol
Mechanismen
Speisen
Would
armed
##leistung
Haben
Muslim
Belgian
Kopenhagen
##sfähigkeit
Wikitravel
besorgt
engines
listings
##zone
Hat
angebracht
urgently
warning
native
printed
proportion
sichergestellt
bestellen
Drittel
Pflanzen
Tonnen
##rechts
ecological
manufacture
load
presenting
bathrooms
begins
revenue
Tür
feet
kernel
arising
##RE
empfohlen
müsste
sichtbar
GPS
Straßburg
Wähler
##organisationen
54
gefragt
olive
panel
varied
Senkung
widespread
##gi
Überblick
##ziert
mögen
produces
selber
##jo
bekannte
bestand
##fully
Common
adds
Autos
Parkplätze
Super
Warcraft
Ferienwohnung
Innovationen
reserved
Pacific
efficiently
Consequently
concert
meal
Steuer
casino
ends
inspired
##bility
sole
##ulated
Montag
##nz
Children
appropriations
recording
Berichterstatters
Hohe
virtually
wachsenden
medicine
##ère
Original
Performance
Religion
Residence
erklärte
Parlamente
Instruments
offizielle
rechtzeitig
Andererseits
Detail
het
Saddam
ergänzt
na
sand
serving
steigern
Versorgung
Widerstand
choices
intends
referring
verwende
CAP
stunning
heading
##SE
ch
engage
geeignete
gegenwärtige
zulassen
##atz
Bed
Länge
frage
lebt
meets
Volkswirtschaften
alcohol
##ils
Gemeinschaften
Regulierung
pillar
##rien
##voll
gradually
denjenigen
##ente
Basel
succeeded
integrierten
##ination
resulted
Civil
Dingen
Helsinki
Jerusalem
Mädchen
honour
zweitens
records
sit
verweisen
Augenblick
anzubieten
unmittelbarer
estimated
seats
##kommt
##position
##ou
Projekts
ländliche
acquired
stammt
consequence
untersuchen
##iz
Jugendlichen
konkret
##tätigkeit
highlighted
lie
##ivity
crises
geographical
producer
##PS
##elt
##my
Small
execution
sophisticated
Area
combines
herrlichen
##leitung
Department
Zusammenhalt
weltweite
Hindernisse
Premierminister
Using
Big
oldest
relates
Journalisten
Nigeria
Urteil
besucht
liable
chinesische
müssten
##gemeinschaft
affects
explanation
Saison
derzeitige
kilometres
strictly
##stoff
##late
350
Dialogs
##ast
##ula
Glauben
entscheidenden
Benutzung
Sicherheitspolitik
Ombudsman
spreche
Up
bonus
##schaften
Bedürfnissen
##wege
hidden
Cooperation
Porto
brachte
stories
Chile
auffordern
Appartements
Todesstrafe
Vertretern
Nachhaltigkeit
Oberfläche
custom
troops
Have
Pension
encouraged
schätzen
##og
##ín
specialists
considers
gekennzeichnet
taxi
uniform
Professional
##krise
Sieg
percentage
sphere
überlassen
Mandat
girls
knapp
Berge
gedacht
##ily
erzeugen
horse
##iation
errichtet
radical
##gesetzt
Bereits
Lastly
beeinflussen
bright
effektive
Häuser
king
teachers
Three
kümmern
seconds
asset
incorporated
##bericht
upgrade
##änder
agents
politisches
servers
beinhalten
Airlines
##ora
Käufer
airports
shuttle
meals
reporting
##liches
Hinweise
bedeutenden
Jesus
egal
##prozess
Danish
Pack
hierzu
oftmals
vorgestellt
##CE
Beachtung
Ergebnissen
Explorer
adding
federal
rely
Mechanismus
produzieren
Schreiben
##nia
Nor
angemessenen
blocks
environmentally
Ansprüche
kontrolliert
promises
##freiheit
eigener
froh
manual
Umweltfragen
associations
Sonntag
insist
seemed
##án
##ão
Immobilien
prisoners
achievement
alongside
gross
operator
seeks
visual
##mus
bezahlt
Erlebnis
##frei
##niveau
Further
mouse
Übertragung
Nikon
capabilities
verletzt
##tiv
participating
puts
Truppen
Wind
derer
##konferenz
Joint
aviation
Nokia
Wirtschaftspolitik
Sobald
##nummer
##stellt
implications
infolge
preserve
restricted
Make
##tors
Typ
##richtung
Michel
Versammlung
soil
typischen
unentgeltlich
betrieben
1988
Siemens
conditioned
roof
Suites
##SS
Engineering
befasst
crew
##geführt
Constitutional
convergence
praktischen
##strategie
expand
Cuba
Fläche
repair
##hy
Akteure
suit
Terms
Wirksamkeit
##ella
Metro
diesbezüglich
56
##lassen
observed
20th
eventuell
Authority
Energieeffizienz
aktiven
hopes
Finnland
Verwirklichung
festzustellen
surprised
OECD
accidents
richtet
##hn
##teilen
Präsenz
attend
weisen
Errichtung
##forschung
illegale
neun
##fi
prize
Lesen
Dresden
stelle
exact
multilateral
anzunehmen
marks
stammen
Access
KDE
momentan
Florence
dispute
irischen
palästinensischen
##unt
angewandt
evident
Apart
Modernisierung
harmful
spezialisiert
älteren
##64
##regionen
##schrift
Spitze
realer
incentives
##IA
##eit
prison
Anmeldung
berechnet
jedenfalls
##gezogen
empty
guided
##ically
##wood
Car
passing
ausgewählt
minor
Datum
Treaties
Weil
Zuge
clarify
quote
##station
##setzung
Chairman
Haushalts
beer
humanitären
##fähigkeit
camp
finanzieren
purely
specialized
wage
##ji
##set
graphics
##ften
Entfernung
Tel
accounting
ehemalige
quotas
coherent
spät
governing
sah
script
utmost
Wissenschaftler
stayed
wirkt
Sektors
stake
##tlich
GAP
colors
initially
zero
Jewish
Operation
Vorstellungen
permission
##tre
gefährdet
Schüler
effiziente
integrate
wooden
##ple
indoor
Räume
alter
Besuchen
approaches
believed
53
Argumente
aufs
renoviert
Demokraten
erkannt
soeben
eliminate
productive
wesentlicher
##ING
convention
schwierige
Betreuung
Portal
expense
##band
offenbar
##ways
enforcement
##regeln
conferences
##küste
##rates
verringert
wirkliche
Arbeitnehmern
Travel
addressing
Allah
Bücher
dance
##ford
##ient
Burma
Gottes
Kohäsionspolitik
##iden
Gay
compulsory
europäisches
hinzu
italienische
##ST
Wohnzimmer
dauert
spite
##erten
League
Ticket
bearing
Grundlagen
Strom
geregelt
Krieges
##RA
CDs
secondly
teil
ergänzen
hills
hinweg
reisen
Spezialitäten
Fleisch
extending
##ches
##inen
##las
Entwickler
Leipzig
##cted
##tory
Wiederaufbau
Zwar
clock
avi
festlegen
##ein
Ausweitung
Dokumentation
relationships
Philosophie
Verbraucherschutz
##gebiete
Einen
aktuell
Betriebe
broken
classical
filter
opens
operates
Strände
Safe
poorest
##ees
maybe
Übrigen
##spielen
communicate
Karl
Level
##oren
Ausarbeitung
fax
##itation
##oon
RSS
hart
##ished
developers
weg
Account
Werten
XML
revolution
##tch
##issen
##ller
##nehmen
##lli
Firefox
Souveränität
sufficiently
##mon
##sehen
Arena
chairman
faces
##ctor
gewählten
retain
##sive
Russlands
assigned
##dischen
Fundamental
schemes
stuff
##50
airlines
discount
Wohnungen
contextual
smooth
##stück
Satz
Smoking
Transfer
manchen
##gänge
audience
repeated
Himmel
Traditionen
ansehen
medieval
##lösungen
72
##RT
Samstag
Verzeichnis
aufzubauen
##die
##bereiche
enormen
permit
Übergang
##well
William
beseitigen
digitale
##VE
Auflösung
Product
ausüben
stores
freut
Flughäfen
zeichnet
##ney
##EC
Deutschlands
##gelegt
CEO
Effekt
Empire
Line
TO
actors
Riviera
charm
negotiation
Weiterentwicklung
##ock
##zugeben
Series
Zweiten
Bildern
Filme
Monte
NEW
Wall
Prof
Edinburgh
ansprechen
##jährige
Times
##vollen
booked
boot
collapse
composition
##brechen
Jedoch
innen
versteht
suggests
vollständigen
##table
Denken
Vorsitzenden
##code
Dänemark
Nizza
wahr
##mt
##sts
Aussage
remarkable
concentration
58
describe
##tions
Ausbau
Module
vorzunehmen
##gas
Doppelzimmer
Valencia
behält
campaigns
##fung
Migration
##maschine
Orten
entfernen
studied
whereby
##richtlinie
1986
Anbetracht
LCD
Vereinigte
een
Finde
##24
Fahrer
violation
Werden
busy
professionelle
shortly
enjoys
hervorragend
staying
##ail
Zwischen
false
grünen
medicines
##mark
Aufzug
adventure
edited
superb
Einer
calm
erteilt
mixed
sammeln
Café
Event
fewer
genaue
##chi
legitimacy
operated
##laden
##zieren
Blair
Moscow
Ratschlag
Read
Tieren
##IT
bereitet
constitutes
exposed
##cio
Syrien
ownership
##uous
ingredients
joining
mehrfach
miss
täglichen
##ada
##chaft
bought
Employment
anwenden
entstand
ultimate
##ight
Gegner
chapter
vorliegen
Universitäten
forth
inadequate
##sis
Besitz
MS
##15
##smittel
Argument
bewerten
SQL
carte
Serbien
angenehmen
height
pilot
scheduled
linken
südlichen
##lay
Desktop
max
painting
##ship
amended
Werkzeug
schwere
OR
secondary
wife
##ho
Nordic
Objekte
clicking
refused
##mp
gemeinsames
##ved
ease
kostenlose
pools
Export
aufbauen
journalists
Samsung
Unterkünfte
##lock
##wechsel
html
##erte
##ima
Fisheries
Go
Jan
eingeleitet
keineswegs
##IP
heads
##gesellschaft
Mini
VIP
reagiert
##ong
newsletter
##istisch
130
vorgelegten
##werten
Erfolge
Slovakia
repeatedly
Niederlande
landwirtschaftlichen
translated
Internal
Soldaten
boats
completion
marine
##TC
Vordergrund
soul
underlying
verwendeten
überwachen
##AR
Danach
Existenz
checked
schließt
wirken
Lernen
Mängel
Volkspartei
Appartement
Burg
meaningfully
##30
900
Out
satisfactory
desto
escape
umgehen
ausländischen
Fed
begun
urgency
##setzt
##gie
Nation
neighbours
##einrichtungen
erhoben
Katalog
OLAF
definieren
Annehmlichkeiten
NICHT
Palma
foundations
maximal
Modul
Ruf
dramatic
iPod
HD
Subject
eingebracht
geniessen
Bestätigung
economically
frequency
##wing
electrical
sovereign
Bezeichnung
Intergovernmental
examination
technique
variable
1945
appointment
preferred
ratification
vollen
##wahl
Nehmen
Sowohl
baby
mere
Galileo
##fällen
##mission
Listings
ständigen
##text
##ule
enjoying
##can
Lager
loans
Ehre
Internetzugang
gegebenenfalls
organise
##MA
enthalt
##gaben
kennt
roots
##ox
Fassung
Marco
considerations
references
##skosten
##uche
sorry
kontextuellen
expanded
##branche
moments
##kräfte
Quark
Search
array
entdeckst
gewidmet
HU
deserves
herzustellen
presidential
residential
##abkommen
Together
umfassen
##urlaub
nächster
1985
##uten
Prozeß
beantwortet
cancellation
Heimat
Erwachsene
Revision
Sun
compete
falling
110
##smus
1987
arabischen
höchst
portal
willingness
boasts
gesellschaftlichen
grammatically
##ening
Hof
contextually
hence
navigation
coastal
moreover
hinzufugen
trained
verstehe
withdraw
##log
##änge
genuinely
grammatisch
Venedig
certified
kontextuell
principal
##hält
Wednesday
riding
string
##vorschriften
Steigerung
bigger
theatre
##last
Entschlossenheit
Filter
managers
##schlag
hinzugefügt
hochwertigen
ökologischen
##NA
Fans
Km
Ministry
ausgehen
veröffentlichen
Konvent
Publikum
derart
Section
Point
Schlusselphrase
Schlusselwort
enge
erwiesen
informal
##pm
History
Clinton
apparent
aufgezahlt
commit
Anonymous
Dynamik
Gibt
##pel
conciliation
Val
Versprechen
fascinating
foremost
##ition
Copyright
bedroht
destroy
ausgegeben
innovativen
ruhige
timetable
##jährigen
arranged
##mar
Lateinamerika
festen
Rechner
berichtet
unnecessary
##iven
Chief
erheben
inclusive
59
Autor
gestatten
##mos
Premium
layout
observe
Ablauf
Drei
aktiviert
iron
öffentlicher
Gebühren
Kompetenzen
besonderes
guaranteeing
logic
Corporation
Eines
Fisch
diving
lädt
nutzt
##itz
Left
Spaziergang
hilfreich
Insgesamt
Morocco
debating
##ever
##fassung
Abteilung
Drogen
Genau
Prag
Lehrer
##blich
##zustellen
Aspekten
lo
transfers
##del
##ders
##maschinen
##probleme
Weltkrieg
voters
##tti
Düsseldorf
subsequently
##iss
Erreichung
poker
splendid
Können
Schicksal
grenzüberschreitenden
Luxus
alternatives
openness
Durchsetzung
textile
##hung
Amerikas
generell
Greens
##hop
broader
intentions
travellers
Fitness
professionellen
Youth
adult
favourable
thorough
bewahren
listening
strike
verbreitet
##ité
Sekunden
codecision
elegante
##fallen
sizes
##stehen
##projekte
##richtungen
##ters
erkunden
representing
##cies
##itive
##tur
Modern
Partnership
Ratifizierung
Several
Visa
##ac
Australien
characteristic
##schule
IBM
Slowakei
fifth
langer
##jahr
Ausrüstung
bearbeiten
##sk
##DA
##egen
Brücke
Entwicklungshilfe
blind
featuring
trouble
##zentren
##°C
thumbnail
unity
Behörde
Chr
MB
bereiten
residents
speeches
##raten
Verbrauchern
expenses
sucht
##ude
External
Growth
Patten
folder
niedrigen
Francisco
te
terrible
Garantien
qui
occupation
##ram
behauptet
könne
Vorrang
behavior
examined
widmen
##gegangen
Third
Ursache
autumn
##ack
##dle
respects
##bi
Montenegro
angenehm
financed
hohes
simultaneously
wing
zweiter
##rolle
Governance
Modus
Menschheit
Ost
sample
kleinere
überrascht
##züge
Kommentare
Rennen
erstes
schauen
Palestinians
devoted
offiziell
Guide
fassen
importantly
tragedy
##ata
##kontrolle
##landschaft
##tics
Gemeinden
beibehalten
cookies
electoral
##60
##aren
Seele
suited
Anmerkungen
Ford
Schulz
afford
survey
##iges
##quellen
Solana
branch
gelesen
geliefert
grand
##kunden
Ausblick
kosten
losing
Alps
Program
condemn
früh
spectrum
vocational
URL
falsche
slopes
##minister
Beschränkungen
Häfen
schwedischen
##bert
180
Bosnia
Klarheit
lively
##sierung
Heads
Kurz
berühmte
erwerben
tragic
##sicht
Konvention
wear
jurisdiction
##tan
Water
##nda
Bett
institutionelle
progressive
Bevor
existieren
motorway
##ug
Ashton
California
Palette
##iers
##zubringen
Arts
authors
dialog
letters
optional
Nichtraucherzimmer
Order
Village
geringen
##bing
schriftliche
verurteilen
Aussagen
jointly
##bed
##linien
Baden
Hände
Massage
complaints
instantly
gift
anzuwenden
auswählen
purchased
##bruch
##grenzen
##ques
Ereignis
genauer
spanische
##oni
Statistiken
##kultur
Ausrichtung
Fortsetzung
Keine
elektronische
Sports
pace
Clubs
OK
accordingly
chair
geblieben
Wettbewerbs
pain
Ideal
Index
begegnen
desktop
unterschiedlicher
Haiti
Laden
affecting
anzupassen
clarity
vertritt
##20
EIB
Storage
populations
prospect
##ace
##ünden
convenience
erteilen
kostenlosen
##ano
excursions
relief
sparen
tend
##abel
##gegeben
Ministerpräsident
Rückgang
amending
arts
fly
oppose
##eller
##uen
knew
vermutlich
##dlich
57
Bergen
gemütliche
En
finds
##ziel
Werkzeuge
violent
##lischen
##rant
CS
Vorgehensweise
funded
vermittelt
##sweise
Wichtigkeit
enger
manufactured
umgehend
destinations
Gewinn
Kommissionspräsident
forgotten
##führer
integrierte
##nge
##tle
accessories
ceiling
interne
sessions
twin
verursachen
Fast
measurement
##70
certification
composed
freundliche
##lies
##rm
Laut
buses
ideally
revised
92
Alternativen
promoted
solch
Tickets
##hnt
Game
Produktivität
Kenntnisse
Library
langem
1970
End
Updates
regulated
transaction
##ühlen
Uns
erstens
stopped
sunny
##ressourcen
Gesicht
calendar
Bestellungen
Kein
Lieferanten
fell
##lte
affordable
arrangement
beweisen
Südafrika
beabsichtigt
erheblichen
hill
therapy
wirklichen
Designer
Plätze
Wahrung
buying
recall
renewed
roll
vary
virus
##grund
##mals
Southern
davor
inspection
konsequent
sogenannte
fan
##zation
Add
Betreiber
Mode
Offenheit
Weine
plug
##ont
Bewusstsein
Language
afrikanischen
modify
##alt
Bauern
Netze
essen
honest
removal
##wards
Betracht
nobody
##ao
##gleich
Million
deaths
preserved
Aufhebung
befürworten
deficits
jüngste
##gestaltung
##tragen
Liberalen
inner
publish
##AT
turns
##freie
##list
Democratic
Zurich
doubts
##pin
Halle
afraid
commerce
erarbeitet
gegangen
stattgefunden
Côte
Nachdruck
##gut
Felder
Ferienwohnungen
lenken
stärksten
##behörden
Protokolls
accuracy
beinahe
integrity
researchers
##bes
Problematik
basically
##ifying
respektieren
smart
##orn
ALDE
parks
refuse
uncertainty
Abbau
Otherwise
##iving
##med
Festplatte
adjustment
typically
whatsoever
##fa
Cross
specially
tatsächlichen
Inhalten
auswirken
##abe
Zerstörung
focuses
Kennzeichnung
derselben
##logical
erkennt
##gesetz
umfangreichen
##planung
##sort
Fahrzeug
erweisen
kombiniert
Übernahme
##pi
continuously
deutliche
paths
russische
abgesehen
expressly
##nisch
fortsetzen
soldiers
GUE
Mischung
bewegt
zustande
Großen
günstigen
##leistungen
Weiterhin
greenhouse
##zulegen
logo
mental
uneingeschränkt
Köln
Kürze
##40
Immer
Milan
aktualisiert
sitzen
steigt
Zielsetzungen
deadline
##unk
Country
Finnish
ethical
gefährlich
Chancengleichheit
angekündigt
bezeichnen
technisch
##iste
wachsende
##bung
Olympic
Trend
Weltwirtschaft
emerged
endgültige
DC
Einzelheiten
sake
Wireless
mouth
pensions
erforderliche
quantity
##fähig
##oe
##€
Diesen
dimensions
Klimawandels
Minderheit
intensiv
Glas
Prize
Reinigung
ausländische
vorliegt
Representative
Zunahme
chose
declare
erleichtert
transitional
##OM
Handy
Wünschen
Zuverlässigkeit
installations
planen
Wachstums
##legt
literature
recession
publishing
vorsieht
##rier
belongs
deserve
healthcare
mechanical
stressed
visits
##ax
##schreiben
Defence
Georgien
Händen
##11
ignore
##AN
TNG
Zeitplan
monuments
ratio
##entwurf
##nne
delays
geringer
surveillance
##BA
Lebensmittelsicherheit
Verfahrens
centers
einst
wächst
##east
Anreize
relaxed
##ühle
Theorie
Verheugen
architectural
focusing
logical
pattern
distinction
geehrte
governmental
##ec
Daniel
Logik
Richter
##tig
anerkennen
##sam
Wiederherstellung
newspaper
observation
wave
##sm
Ausnahmen
sailing
##gerät
constructed
günstige
explicitly
pressing
##barer
##förderung
Herkunft
leiten
##hnung
granting
##fahrzeuge
Argentina
Beijing
territories
##staaten
Cologne
Part
Press
bay
##geschichte
##ville
ausgestattete
##mas
beef
facto
mine
##bett
Bureau
officially
##sagen
Tampere
ex
gering
typisch
verabschieden
1979
Contact
Gute
kurzer
2014
Einnahmen
Erarbeitung
innovations
##down
##ingen
Taten
achievements
18th
Industrial
Taliban
conversion
2nd
Umstände
revealed
Föderation
Millennium
automotive
publications
Eröffnung
Zimmerbeschreibung
movies
php
duration
beneficial
##SC
angenommenen
gemütlichen
returns
wachsen
##mail
##zugehen
argue
undertake
whenever
##AC
verzichten
##uelle
winner
Kabel
berichten
civilian
convert
getrennt
erstreckt
Empfang
##PE
Kongress
Kernel
Mar
effizienter
Bürokratie
Gewinne
Objekt
parlamentarischen
realisiert
threatened
verschaffen
##GB
gestartet
Nachmittag
neighbourhood
übermitteln
Bonn
advise
anpassen
zugestimmt
academic
exhibitions
komplexen
realize
regionaler
##ture
eleganten
identification
keys
wunderschöne
Derzeit
Fremdenverkehr
Haushalte
coal
üblichen
Bosnien
Friedens
employers
ruling
split
zentraler
##RD
SDL
Schuld
brands
Finanzen
Terroristen
chemische
erwähnten
Verordnungen
catalogue
##ib
##sation
Betrifft
Bonus
gehabt
stops
Referendum
absurd
wars
##sischen
umso
140
cameras
formuliert
Fischler
negotiated
dieselben
Händler
Wald
beteiligten
intelligence
passion
schedule
##af
Bill
certificate
dieselbe
indicators
machinery
notably
unusual
prevented
taxpayers
##ita
Privatsphäre
gemeinsamer
größter
Double
Voyager
dasselbe
innere
##dem
##ku
Reich
Rural
judge
religiösen
necessity
ursprüngliche
precision
Easy
Formulierung
Kuba
Verfolgung
eindeutige
Übersicht
##quelle
eins
##nehmer
genießt
prestigious
##bestimmungen
##gebieten
dahin
premium
preparations
##tritt
empfängt
geringe
retten
bewußt
negotiate
wheel
Until
alike
medizinische
Ausbeutung
posts
C4
precious
##com
Wikicars
rechnen
senior
##AP
##py
cancelled
postal
credible
jeglicher
zugelassen
##dan
Tower
proximity
trains
zurzeit
##load
##sprache
Presidents
drives
rating
signals
ähnlichen
##inger
Bühne
Handlungen
concerts
interactive
vermieden
aluminium
sky
vereint
##atic
Erhalt
NGL
Rezession
Verabschiedung
eröffnen
claimed
reflection
Gut
dollars
einiges
retail
zwölf
Raums
leistet
patterns
Ausgrenzung
Renaissance
attended
heavily
##lingen
##pot
##öse
Solutions
debated
eigentliche
##gleichen
gelangt
unknown
wahre
Begründung
Everything
Hour
durchzusetzen
telecommunications
##ef
Spannungen
Sri
gegenseitigen
steam
suspended
##ional
##prinzip
arrange
Linien
Tarifa
##hersteller
armen
interessanten
##IM
Summe
österreichischen
Smith
tower
toilet
##normen
##ätze
purchasing
sandy
##ät
Ref
delete
erarbeiten
freight
Hussein
frequent
mistakes
##stischen
Class
fails
noon
releases
##wirken
##aktivitäten
potentially
##ars
ON
##akt
##vy
Mittwoch
Versuche
beruhen
##werfen
protest
zukommen
José
Außenminister
Getränke
Scotland
Stufe
befürwortet
flexibel
insufficient
komfortablen
##ph
Leiter
organize
##lie
Menschenrechtsverletzungen
flying
inter
justify
blieb
sonstige
##ake
##betriebe
##izen
##rator
Süd
Wetter
admit
logistics
sterben
##CC
##ala
##halle
kleineren
replacement
integrieren
##rating
Holland
Jugendliche
SMS
moves
aufgestellt
consistently
späteren
Kapazität
comprises
Mails
Panorama
##stehenden
Minibar
ratified
##ink
Anzeige
como
nationals
verwiesen
##hre
Charme
Funktionieren
announce
bug
jährlichen
orientation
Meinungen
passieren
photographs
Wesen
Wälder
einstellen
phones
Deep
Strasse
präzise
schlechte
Angabe
Jacques
transit
withdrawal
##funktion
Ferien
lets
##geschäft
Force
Select
certainty
##iled
##problem
Belastung
Peace
breach
##chtung
##ines
##ncy
##ome
##situation
heutzutage
leichte
##sieren
Güter
conservation
##gar
Istanbul
##dateien
Abgeordneter
geeigneten
gewünschte
harm
Marokko
Sant
generous
privileged
robust
Intervention
Osteuropa
acquisition
favourite
closing
einzig
imported
vertraut
##ange
##freien
Alpen
Tabelle
##amen
##hood
##rian
Spektrum
##ws
citizenship
equity
##12
Fakten
##sunternehmen
Bewohner
Commerce
Fair
Rechnungshof
komplexe
performing
formation
gerechtfertigt
ill
##ement
##fenster
##hand
abgeben
signing
unterscheidet
allocation
contributing
##ath
##nk
##ois
Monti
bewertet
evaluate
moderner
66
Experience
Mountain
apparently
farms
worrying
Bridge
fanden
schwieriger
teilt
##betrieb
##ents
Iranian
Lobby
bisschen
clothing
israelischen
Nichtraucherzonen
Unternehmer
indicates
problemlos
viewed
feedback
##90
##lm
##schein
Virus
bedauerlich
endgültigen
fehlen
##ators
demonstrates
##acht
Anträge
bureaucracy
humanity
Zusammensetzung
##ato
Funktionalität
beschleunigen
beschreibt
teuer
Lebanon
Liberal
occurs
supplementary
##cer
hesitate
##skraft
##über
Bürgerbeauftragten
Organization
mandatory
slowly
stick
thanking
Einwanderer
Release
Vertrieb
archive
expanding
intervene
mittlere
spielte
Malaysia
Türen
faire
Erzeugung
Krisen
erlassen
judgment
spare
wages
##PA
##hang
1984
Galerie
##nnen
designer
transformation
##car
##ßen
9001
Beste
stance
##bling
##una
caught
##alität
NRO
Verlängerung
basieren
löschen
Beurteilung
experiencing
Beamten
Conditions
contractual
harbour
organisierten
verliehen
Israelis
Similarly
wert
##ais
Pflichten
verstärkte
##tiven
ausreichende
patents
##ausschuß
##city
Anbindung
Gebäuden
füllen
polnischen
wertvolle
Fischereipolitik
Her
Präsentation
Saal
imposing
##fest
##oy
Cathedral
Spezialisten
Stein
Terminal
ablehnen
favorite
semi
chemicals
coordinate
derjenigen
einführen
liegenden
##card
##vertrag
62
Medikamente
Produzenten
##bre
Erwägung
Menschenrechten
Traum
Verluste
Anna
chat
cooking
gratis
abgegeben
eintreten
elderly
placing
##grenze
##vation
dating
geplanten
gewinnt
undermine
Hitler
drinking
einstimmig
pas
District
höchster
Jazz
Phänomen
Register
initiated
catering
chief
dargelegt
pays
Arbeitgeber
Energiequellen
Picard
downloaded
##uro
Ausübung
Venezuela
opt
Adressen
airline
gelingen
tropical
##ological
##press
Four
Rahmenbedingungen
Yugoslavia
angebotenen
industriellen
technischer
Slovenia
silver
vereinbarten
ändert
Look
occupied
wherever
ALE
empfiehlt
##NE
##dia
Lithuania
Schutzes
blame
editor
Einschränkungen
pursued
##mischen
##nder
emerge
measuring
verarbeitet
worry
##lesen
Beratungen
downtown
Mengen
displays
medizinischen
procurement
respectively
stattdessen
systematic
G20
Unsicherheit
cancel
novel
Feststellung
Französisch
KOM
eingeladen
churches
conventions
hole
inneren
zones
##ari
Ergänzung
Profil
Schnittstelle
horizontal
intense
maximale
thumb
##sstrategie
##wand
Gallery
bedienen
ending
englischen
heated
tough
Route
Steuerzahler
notified
unanimously
jemals
technologische
##stoffen
Datenschutz
beeinflusst
dog
minimal
Santer
applicant
##isse
Termin
Medizin
aussehen
degrees
terrorists
Beschluß
Madeira
Verletzungen
creativity
geistigen
specify
zugute
1967
creature
disputes
dual
earn
investiert
Excellent
ans
externe
überwacht
##mmt
Anwesenheit
günstig
##geber
##produkten
Ordner
coverage
ärmsten
##ela
##ues
competences
organisierte
premises
Geschäften
Konzentration
Shanghai
Verfasser
ball
magic
platforms
DER
converted
##steht
exposure
Einschätzung
assurance
einnehmen
geleitet
Darfur
SK
aufgeführt
eigentlichen
male
neutral
sentence
tonnes
Brok
Erbe
FI
passt
##25
Arbeitsgruppe
gesichert
lokaler
qualifications
sonstigen
terminal
timely
Technologies
arrest
herum
Andreas
Betrug
Vertretung
##räumen
Rand
Sarkozy
Technical
copies
lovers
Aktien
Alpha
Beschwerden
biodiversity
##sel
Leuten
ernsthafte
nachhaltig
globaler
silence
##PM
##amt
##klasse
Division
nehme
vis
63
Muster
lighting
streng
authentic
bewirken
sagten
Wichtig
lowest
shot
##CO
##ises
Change
IS
verpflichten
Socialists
answered
directions
viable
##reiche
DS9
Gärten
Verts
eingeräumt
##ool
3rd
unterwegs
##üge
engen
Konferenzen
##beziehungen
##systemen
1978
Angeles
Unterhaltung
##gebäude
##rent
Olympus
Santiago
Seen
Studios
accommodate
68
Communist
findings
##ching
Which
vergeben
##ife
defense
##cious
##я
Grundsätzen
posted
warming
##rse
insofern
unstable
##dlichen
##lic
Antonio
keeps
teilzunehmen
##zione
Angriffe
Deposit
appreciated
makers
pursuant
Herrschaft
Rassismus
unemployed
verwirklichen
##listen
License
Young
gelegenen
spätestens
temperatures
Come
integral
##tat
71
Drittstaaten
HP
garage
gelassen
headquarters
Verteidigungspolitik
migrants
##regelung
##té
convince
hospital
react
##ured
Wiener
beschließen
fitted
ständige
vorgehen
##kis
##kung
Gebühr
realen
##town
Consulting
erfasst
substantially
##ziger
arm
beizutragen
globalization
reich
##typen
arbitrary
beruflichen
eigenem
##ida
Kaiser
NCC
adjust
kritischen
perspectives
visitor
##dienstleistungen
##eur
##vis
Bewältigung
derartigen
handled
##dos
##otel
##srecht
##uell
Bildschirm
Ibiza
Solche
erneuerbaren
##ners
Branchen
Mehrwert
angeblich
ehrlich
##aft
##ibly
##weisung
agrees
approx
partnerships
##igungen
ambition
plötzlich
##dies
##ilen
Provence
bill
versehen
Gulf
Neues
verzeichnen
##service
Kapazitäten
fuels
treaties
##71
##nahmen
capture
Inkrafttreten
LED
beliebigen
essence
##spiele
##ufen
##verkehrs
Besteuerung
Choose
wake
workshops
##treten
handed
gefährden
threshold
##TION
##änderung
Büros
Konzepte
Merkmale
Rußland
Tee
ohnehin
angewiesen
desirable
inakzeptabel
regeln
Capital
crops
pm
##änderungen
DIN
Innerhalb
Konstruktion
explains
Kirchen
Kräften
breit
rubber
shaped
ultra
##CA
##zy
Right
Sand
defining
trans
##lk
##rus
Aufnahmen
Climate
Subventionen
alleine
einander
stays
Gespräch
Karriere
comparable
describes
##kte
##tadt
Kreativität
decent
flag
paradise
respektiert
##holen
##rge
##zieht
Light
Process
partial
oberen
Flugzeug
KG
papers
##basis
warmly
weitaus
Sicherheits
artificial
erweiterten
isn
lesson
segment
450
Natural
Rubrik
assured
practically
##ett
Konkurrenz
entries
Äußerungen
Speed
kostenfrei
leather
Cala
passende
##märkten
##rupt
Palestine
micro
##gia
DIE
chairs
maps
LAN
Techniken
geschafft
##ación
##iro
##mmer
Sitzungen
Weltbank
suggestion
##EX
##tin
Abenteuer
Obviously
bet
structured
##day
##о
Unterzeichnung
ring
##LA
21st
##chung
Ausschüsse
ausführlich
öffnet
##graphy
emission
##print
##32
##right
Frank
biological
confident
Merkel
solved
unions
##66
##alisierung
##rei
Palacio
folglich
schenken
##nn
Geben
werfen
##stände
1982
Anhörung
Gerichten
LT
##lio
##rative
Studium
avoided
choosing
edit
kontinuierlich
pharmaceutical
Barack
Umsatz
fairen
gains
sheets
Bewegungen
ausgewählten
ordnungsgemäß
receives
Geräten
gebe
raises
Gipfeltreffen
Juan
Tennis
bewiesen
vollem
##part
Visit
getötet
kommerziellen
loved
measured
workshop
zunehmende
##80
##bra
##seits
Meanwhile
tips
Lido
bonds
geschickt
specifications
technologischen
##gers
##key
1975
Regionalpolitik
dauern
##RC
##rium
laser
Norway
bestens
settled
Beschäftigten
eingeschränkt
##unch
Lehren
Pierre
automatische
performances
sees
##ET
##flug
##ode
##rand
Editor
Features
meantime
unterbreiten
controversial
watching
##lei
Citizens
Konfiguration
Pflege
gelernt
ruhiger
Motto
Müller
Tuesday
kids
specialities
Grünbuch
Unterlagen
schrittweise
voneinander
##eration
Lehre
Regimes
bilateralen
disappointed
erörtert
##duction
Stahl
demographic
fortgesetzt
gehandelt
incentive
teacher
##teilung
cheese
column
AKVIS
Freuen
Heiligen
Klein
doctor
regulate
throw
worthy
##izes
Apache
Display
Vorgaben
graphic
##67
EP
File
Vorfeld
einzugehen
strange
unlike
zeigte
##EL
##spunkt
##tehen
Missbrauch
enlarged
COD
erlangen
piano
##versicherung
Gegenwart
Nonetheless
angelegt
fate
harmony
finances
normale
talked
##bles
gestellten
gültig
##lare
##verarbeitung
Alltag
Communication
Franz
Prävention
bedauere
Übereinkommens
##kette
Aktivität
Finance
fears
publicly
thoroughly
wechseln
übermittelt
##TV
##dge
##formen
##teen
größerer
nonetheless
unlikely
Indonesia
Lasten
isolated
unterbrochen
##aster
##gan
##hausen
##uck
Patent
stützen
##16
##CH
##eck
##höhe
Jackson
Taste
acquire
##ziele
cent
challenging
exchanges
nachdenken
vernünftige
##behandlung
##rch
##ügen
Katastrophen
emphasised
signature
##off
Tempo
bureaucratic
plain
##flächen
controlling
fought
lakes
photography
##phase
##ska
Fernseher
Head
Parliamentary
preliminary
automation
##sprozesses
Iraqi
Superior
develops
angenehme
statistical
##68
##UR
##führt
##steigen
sustained
vorbehalten
##ogue
Armen
characterized
erbaut
Schatten
##cast
##rieren
Elevator
Spring
Tochter
derived
discipline
##eg
##museum
Cold
Hôtel
chambres
ignored
reverse
aggressive
Arbeiter
Neu
Panasonic
Sat
differ
67
konstruktive
##mel
Eigenschaft
Zimbabwe
agent
begründet
kritisiert
##AD
##OR
##funktionen
##geschrieben
Dritter
Flug
executed
notion
schlechten
##boden
##verbindungen
Additionally
prominent
scenery
victim
##ama
Cubase
Energiepolitik
alarm
endgültig
consequently
falschen
gebunden
womit
##tos
Hannover
erwähnte
ältere
##itäten
##meter
autonomy
gebraucht
Classic
Montage
incredible
komfortabel
lieben
verbesserte
regimes
Fluggesellschaften
paintings
örtlichen
82
Bezahlung
Transaktionen
celebrate
Everyone
aufgerufen
beiträgt
damaged
gebildet
genetic
##händler
Interface
##svoll
Gefängnis
Trends
Zuständigkeiten
acknowledged
battery
tribute
Bedienung
Frühjahr
undertakings
voran
##test
##zusetzen
Word
erfolgte
fährt
Hügel
expressing
konzipiert
Dienstleistung
Shopping
grenzüberschreitende
peak
##bereichen
Israels
Libanon
breathtaking
inequality
survival
themes
verwalten
##ache
##dal
consult
demokratischer
indirect
melden
##machen
##ume
Libya
Victoria
declarations
erreichte
gutem
spiegelt
1968
birds
hoped
##unde
Guinea
Kim
detaillierte
surprising
##BS
##mor
##rage
93
About
Taxi
centrally
confusion
economics
Informations
compare
spots
Attraktionen
Genuss
Vorsitzender
beurteilen
gewisser
Ecke
einhalten
founding
kurzfristig
##jk
Besitzer
Domain
UND
restrict
tailored
unterbreitet
##kel
brain
ermutigen
1976
Army
##aker
Darin
bearbeitet
drafting
prohibited
##sfreiheit
Christ
Vermittlung
licence
mithilfe
Baby
camps
guidance
##lines
##sta
##water
Amtszeit
Hektar
Marine
Nature
belonging
interinstitutional
mirror
Subsidiarität
inbegriffen
##sin
Flugzeuge
aktualisieren
rechtfertigen
tells
##ians
finest
interaction
spiritual
Alpine
Betroffenen
GB
Macedonia
dominated
engineers
governed
negativ
Aires
Verantwortlichen
realized
zielt
Gewinner
Wille
abschließend
crystal
icon
tätigen
Buffet
Vereinigung
fix
shortcomings
Abstimmungen
Arbeitsbedingungen
Reaktionen
acquis
checking
typische
##strasse
Bilanz
Tom
sporting
Advanced
erinnere
moderate
##gate
Declaration
Optimierung
adjusted
racism
survive
##yer
Arzneimittel
Autoren
Mercedes
angeschlossen
complexity
roughly
Verträgen
begleiten
golden
branches
##modell
##twicklung
Abschluß
hielt
Buenos
alliance
officer
##aden
Ocean
Siehe
Universal
environments
ratifiziert
Long
Touren
##zukommen
Pass
Ufer
badly
erörtern
lacking
modernes
ne
91
row
torture
übergeben
##zehn
ausgelöst
foods
multimedia
##ED
Empfänger
gelegene
##reform
3000
Ton
Tragödie
bread
evolution
exceed
ignoriert
##ova
Palästinenser
condemned
tolerance
##eil
##olt
##ruf
Sir
fulfilled
rejection
##iva
##üren
taught
Überarbeitung
Chef
Vergnügen
codes
searching
thoughts
##angebote
##ced
##gl
Milosevic
ansonsten
conveniently
erzielten
untergraben
Budgetary
Clearly
Heating
Jahrzehnte
Soweit
exklusiven
##OL
Moskau
Sevilla
Unterdrückung
fault
gehe
realisieren
schreibt
überwiegend
##tern
Abu
Sowjetunion
registriert
##ND
##sprogramme
beschreiben
gingen
schrieb
trat
##we
Erste
login
standen
##ativen
##yard
Junior
grundlegender
keen
pursuing
##wort
##zi
Arzt
Schwimmbad
dumping
eingerichtete
girl
bevorstehenden
cache
transatlantic
##onic
Aktualisierung
Besuchern
Luggage
##ex
##uchten
##ulating
Lanzarote
automated
demokratisch
##fiziert
Zufriedenheit
interview
returning
Gipfels
Thai
abandoned
gefährlichen
inquiry
##point
##uliert
Finanzmärkte
doctors
dominant
solide
telling
Anhang
Hill
Parks
Stadium
attract
estimates
upcoming
zwingen
Close
interessieren
monitored
responses
zunehmenden
##bringt
##ctive
##staat
1983
Building
Ministerrat
Temperatur
flowers
Benjamin
circle
owing
regrettable
Anweisungen
amend
bekräftigt
erneuerbare
infringement
outset
##ncies
Erkenntnisse
Zinsen
##HS
angefangen
excellence
messen
parameter
yellow
##hed
backed
shareholders
unzureichend
##17
##stätten
##uts
enttäuscht
unerlässlich
##ME
##verhalten
Lebensqualität
Mittelmeerraum
Products
downloading
immense
setup
##oi
##rl
Sales
accepting
reduces
vorn
##kreis
Avenue
Effekte
REACH
gefährliche
gewünscht
subsidiary
##ktionen
##menge
Archiv
Gewerkschaften
Metern
grants
japanischen
##pers
Gemäß
Klaus
exceptions
Brief
Gesprächen
op
vielfältigen
##rez
Erzeuger
bist
reinforce
relevanten
translations
##core
##ond
Investition
Kurse
assumed
entscheidet
erläutern
Realisierung
solo
##ringen
Entspannen
Planet
accepts
ausführen
enemy
implies
irische
pop
vorhin
##tand
Albania
Anhänger
Entdecken
Hence
##ationen
Rande
freundlichen
##rick
cheaper
conjunction
unfortunate
##UM
##UNG
Indem
departments
feels
herrliche
reductions
##erweise
Beruf
Bewertungen
nötigen
setzte
##aire
##dig
##ffen
##hafter
##anischen
##iter
##lica
##schnitt
incorporate
mining
##west
Cultural
Entertainment
Lebensmitteln
Litauen
Zimmerservice
##ility
Abstand
Palazzo
Shops
erläutert
niedriger
optical
unprecedented
##auf
erworben
flash
hosts
##ito
Einschränkung
##ret
Aufforderung
Zusammen
denied
invitation
transformed
##uit
Manche
Weiterbildung
stood
strenge
meistens
quantitative
requiring
##ep
##tas
Dach
##lass
##lied
##view
89
Tschechischen
deutscher
mitgeteilt
mündlichen
quota
salt
##hne
##roll
Discover
Instrumenten
drücken
editing
namens
##kapital
##same
Privacy
gesammelt
officers
profound
##ück
Betriebssystem
celebrated
gegenseitige
penalties
##ägt
Heimatland
Kinnock
teilgenommen
testen
ungeachtet
vernünftig
##sia
bezogen
indication
schützt
vegetables
##anforderungen
##fy
Aluminium
Peru
Working
separately
##lag
##änen
Einzelnen
Wales
Wartung
enorm
gestiegen
keinesfalls
Gerichtshofs
Gestatten
Kredite
Medical
NET
##eum
##fügen
##nutzung
##tlichen
##win
Danube
crossing
defects
delicate
zurückkehren
##zige
defending
##dessen
##logisch
##risch
Sometimes
spüren
tech
##AM
##ausstattung
ROM
anzeigen
drafted
guides
internationales
irgendwelche
##front
##mitteln
##ées
Friedrich
Oslo
clothes
undertaking
##CS
##team
Gepäckraum
characterised
einzelner
preferences
sofa
wording
hire
Anregungen
Logo
seminars
sensor
##ena
Coast
Siena
auswärtige
humans
verwaltet
ökologische
##achen
Key
Mazedonien
analysieren
einzuhalten
exploring
Above
ethnischen
trademarks
##oss
##unter
##ying
Feuer
monthly
newspapers
recycling
Anreise
Rahmenprogramm
chocolate
lights
simplify
##ugh
gesunden
observers
##ect
##felder
failing
modes
Herberge
aufweisen
circulation
##verse
Finanzmittel
evil
idealen
##cho
Scheitern
Work
hiermit
murder
EEC
beträchtliche
daughter
##75
##gründen
##kin
##phone
allies
begeistert
registrieren
##agne
##hafen
Ausstellungen
minds
roles
##blick
##lip
##wachsen
88
Fußball
Obst
embedded
suddenly
##iles
Ursprung
Verkäufer
herstellen
revenues
starkes
verwöhnen
##rennen
eingebunden
jeweilige
CNS
Camping
Singapore
gegenseitig
wenigstens
Auslegung
Danke
Wolfgang
announcement
calculated
glaubt
##DE
Age
Berater
Ernährung
Rather
bases
##PG
##ost
149
Shuttle
concentrated
deutsch
ensured
episode
gym
riesige
Kathedrale
kritische
participated
stream
##ages
##losigkeit
##ritt
Analysen
EWG
Einwohnern
Hotelsafe
configure
äußerster
##GE
grew
muy
##play
Freizeit
Tyrol
ernste
Übersetzungen
##zahlung
Chicago
adaptation
brother
walks
##ave
1973
Love
Verstärkung
excess
landscapes
receipt
respecting
schließe
##fte
##gio
Inhaber
profiles
##ust
##ürzt
Currently
consolidation
78
angeben
combining
continental
eure
trails
##act
##dor
Ernst
Geschenk
Marktwirtschaft
continually
##rim
##union
1981
Absichten
Konsultation
nennt
refugee
##fied
61
Flotte
household
wartet
##bereitung
16th
Jugoslawien
##slos
##zuführen
##м
exklusive
separated
##of
Gesetzes
boxes
coalition
Heritage
quantities
##gh
##zugreifen
##ändern
accused
simplification
##tät
##ña
Partnerschaften
consistency
einziges
boards
klären
##aking
Job
beider
missions
Eurostat
Haushaltsplans
List
panels
plane
##ifies
##meister
API
Moderne
durchgeführten
endet
nutzbar
##lash
Naturally
arbeitete
interim
securities
sharp
##low
ASEAN
DJ
Entwicklungszusammenarbeit
unlimited
##case
Tier
alive
discovery
denselben
linguistic
Entstehung
G8
Juden
Prix
Tunisia
Verhältnisse
banned
styles
Limited
Ring
commonly
deinen
vereinfachen
##keiten
Ratsvorsitzes
backing
begangen
rose
##ord
camping
consisting
enthusiasm
identical
knowing
reiterate
tape
##72
##urn
Palästina
lohnt
vorherigen
Kreis
Multi
breaking
kompletten
weekly
##lly
1950
Stattdessen
gefällt
investigate
verschiedensten
##partner
analyses
längst
rescue
deleted
filling
permanently
schlechter
##nie
Lodge
circuit
GBP
niederländischen
stärkeren
##aktionen
Premier
Reader
resorts
restoration
vorherige
##kriterien
##unden
##ünde
Niemand
Slowenien
##master
##weit
Grande
##idad
1960
Blut
Diensten
Mary
klassische
pact
rivers
##ception
Halbinsel
demanded
niedrig
scenario
wirksamen
dein
hundert
##mitglieder
CE
eingerichteten
currencies
##ero
##illa
##lebt
##schüsse
beeinträchtigt
brutal
##haben
69
Vorsitzende
kritisch
ocean
Aussichten
Temperaturen
continuation
districts
tackling
##mond
##stone
##waren
listened
Sozialdemokraten
votre
##ltung
connecting
sämtlichen
##cts
##giert
##hu
Directors
Henry
Kanal
stem
unterhalten
Caribbean
Manhattan
commission
underline
unteren
Facebook
Finanz
Mehrwertsteuer
friedlichen
genehmigt
vergleichen
übersetzt
##dliche
Bedingung
Berlusconi
emotional
längere
Eigentümer
Excel
ties
##65
##az
##eien
Relations
Zugleich
engagiert
errichten
sightseeing
sweet
##erungen
##ión
Beobachter
ambitions
presentations
##projekt
##sarbeit
Perspektiven
Zugangs
competitors
demonstration
modest
##OP
Adam
Dir
Harbour
Quoten
Vizepräsident
eating
motions
##produkt
##prüfung
##äle
Beendigung
featured
skilled
tv
##rungen
Deluxe
Swimmingpool
Watch
durchsetzen
influenced
lebenden
tension
warranty
##19
##bte
1974
führten
venture
verehrten
##NT
##nna
##й
kill
Jews
abzielen
aufgehoben
var
verhandeln
zerstören
Ausfahrt
Bali
earned
specialised
weißen
##hard
##ierter
##rooms
culinary
üblich
Bisher
Ereignissen
FAQ
Geschäftsbedingungen
Opfern
homepage
refined
surplus
tangible
vicinity
##ausgaben
##mic
17th
Flüge
Holy
Kohärenz
amtierender
passes
##DP
Future
dangers
ignorieren
##dt
Ausgang
effektiver
formula
portugiesischen
resistant
##vel
actor
explicit
sont
zeichnen
##halb
##rill
Berichterstattern
Could
Leidenschaft
Mount
PCs
beseitigt
irgendeiner
striking
tone
##agentur
##ining
##ivate
94
complimentary
ungarischen
##inal
##zzo
Call
Koordination
schlimmer
verständlich
weiten
##FT
##power
Befehl
clearer
deemed
zahlreicher
##asing
##denken
##nken
EMU
Elite
Marbella
akzeptabel
auszuüben
winners
wofür
überlegen
##ark
##iel
##lu
##chnet
##host
##uan
Randlage
WHO
deny
frisch
rasche
thin
ältesten
##ID
diesmal
##kten
##ritten
EGF
argued
isolation
##ufe
Besonderheiten
bekanntesten
charter
investing
sicherer
socio
Szene
cope
missed
##ahn
Fehlen
SSL
gelang
##izer
Anders
Muslims
einzubeziehen
luggage
passen
##stoß
Auseinandersetzung
Kluft
Prestige
Queen
Textes
Theatre
authorisation
gesellschaftliche
trennen
Beauty
Dienstag
Nahrungsmittel
aufeinander
translate
##ele
##ützen
196
76
Minimum
Wahrscheinlichkeit
arrested
berufliche
##care
##uses
Acht
carrier
finanziell
founder
gäbe
müsse
optimum
Architekten
Monitoring
contributes
employee
fires
twelve
unterliegt
##gne
##wel
Borg
Nazi
ce
##18
##pläne
Whirlpool
cinema
differently
exploit
obtaining
personenbezogenen
##ites
Annual
motivated
zusammenzuarbeiten
##iser
Ankündigung
Implementierung
eingereichten
größtenteils
independently
recover
stakeholders
stehende
##geräten
##ido
Gelegenheiten
Tatsachen
constraints
harte
junger
tiny
verstoßen
##igten
Granada
Sky
fifteen
##bauen
##dauer
##rechnung
Listen
Play
grüne
lifestyle
türkische
##ION
Einheiten
Erika
Magic
married
nowadays
width
##uß
Algarve
Loch
Spuren
Starfleet
ambience
einzurichten
invested
klarer
labels
removing
subscribe
Adriatic
ausgelegt
investigations
permits
refurbished
Legitimität
idealer
Asyl
Credit
DNA
Estonia
Große
Reichtum
Stabilitäts
divide
gleicher
notification
unmittelbaren
younger
Gelände
Impulse
furthermore
noticed
railways
##ierenden
##ye
gathered
verleiht
##zeug
##ý
Summer
loading
verankert
##een
##fies
Arbeitskräfte
DVDs
Formel
Timor
albeit
bedenken
einzelstaatlichen
##das
##hot
Variante
dell
distinguished
##21
Aufwand
Ersatz
Versand
##anische
##rieb
##räge
Commander
authorised
capability
drängen
más
schönes
transmitted
##MI
##rest
Bremen
aufrechterhalten
congratulations
##pool
Beweise
Intel
strive
struck
##ald
##ösen
Begriffe
Internetseite
Speicher
damaging
einzigartig
finanzieller
inspiration
Delta
##alter
##zahlungen
##methoden
##tiert
##würdig
Ben
Verzögerungen
befürworte
encounter
scenes
zumal
zwanzig
Grafiken
forums
palace
query
reine
##schuss
15th
77
Genf
Kommissare
freier
laboratory
liquid
preventive
##wissenschaften
Konflikts
Korean
Tokyo
geholfen
indigenous
wise
Arbeitsweise
Ms
Tourist
assessments
stimulate
##hold
Aufruf
FOR
Fragestunde
Organen
Tendenz
Verzögerung
appreciation
gekauft
inevitable
schlage
Libyen
abolition
##GA
##ums
Elementen
Gegenstände
Verein
databases
##sphase
##yn
EVP
Harry
Zusammenbruch
partition
##lang
Argentinien
Moldova
Zahlreiche
acted
##lessly
Christen
Eintritt
dauerhafte
kilometers
nördlichen
trademark
vorsichtig
##gewicht
##personal
##uin
1990s
Literatur
angehen
Awards
greifen
pride
zutiefst
##map
##sabkommen
Integrität
ökonomischen
##ML
##ndo
Vorbereitungen
ausgewogenen
bereitzustellen
opponents
wenigsten
##hle
Defizite
Trennung
belegt
rational
venue
##lische
##logen
ermitteln
gesunde
##tellung
125
Inneres
Tunesien
promising
rain
##ank
Zwecken
countless
marriage
speaks
##ifen
##var
Entschließungen
Konzert
feelings
griechische
vielfältige
##gra
##inated
##lossen
##senden
Gemüse
Komplettpreise
Mauer
hoc
##ering
geltend
verhalten
##eter
##film
Euros
Hierbei
capacities
hectares
malerischen
observations
sleeping
verliert
weapon
##arbeiter
##ound
##struktur
##tis
Ausgleich
angehören
einmalige
strengen
##lls
##tech
Jahrzehnt
begreifen
unterstreicht
##bedarf
Abgesehen
Dich
Geschlechter
Ungleichheit
anbietet
auseinander
boundaries
extends
##MC
##hal
Freien
kommerzielle
landwirtschaftliche
umgekehrt
Between
Christdemokraten
Tony
droht
lens
zukünftig
##73
##größe
##jekt
Mountains
Songs
Vorwand
glücklich
plugin
##boot
##lität
Plugin
accountability
fruits
fur
promotes
vertrauen
##gemäß
##tieren
##vision
Datenbanken
Walter
auto
dictatorship
terror
##erry
Effektivität
Spielraum
Territorium
anderswo
villas
##eile
##ssektor
1977
Freie
schwerer
##ew
##ob
Tipps
capitalism
gemessen
nützliche
towels
verschieben
witness
##sy
Sorgfalt
besides
hide
partially
utility
verknüpft
versetzt
Gemeinsam
Hunger
Reihenfolge
solving
##angen
##äne
Review
forming
mehrerer
neueste
##OW
##messe
Round
Vermeidung
climbing
delayed
##chluss
##pflicht
##uel
amerikanischer
effektiven
reale
secured
##fluss
##gehalten
Split
Verona
konstruktiven
startet
Song
Stadtteil
comforts
cycling
incomes
##lat
Forest
Garda
treiben
unanimous
##UT
Leid
analysiert
deeper
musicians
stringent
supervisory
##sische
Bit
Collection
borne
designers
vessel
##bten
Kommissionsvorschlag
Wechsel
bears
schnelles
separation
##sky
Frankreichs
awards
reconciliation
##gegen
##gesellschaften
##link
Mailand
Rental
belgischen
gefasst
wedding
##69
##INE
bedauern
retirement
stabile
wünschenswert
##AG
##fällig
##technologie
Chaos
Deine
Learning
Oxford
Watson
biologischen
talent
##konto
##pose
81
Block
Mugabe
attempted
conviction
islamischen
##II
Kopie
Menschenhandel
Though
safely
##cus
220
Camp
Wahrnehmung
bien
hunger
summary
zwangsläufig
Unlike
Zoll
globally
killing
reaches
##lot
Child
Hierzu
Laeken
Texas
Vorbild
Weißbuch
bereitstellen
besseres
besticht
collections
##artige
##lated
Albanien
Frattini
Stimmung
Treiber
beliebten
benannt
breites
erschienen
gebilligt
südlich
Provider
debian
delivering
genetically
habt
instability
justification
tournament
##fach
Relax
gewann
mailing
socially
##ash
##tone
86
exquisite
seekers
##geschlagen
##spartner
Anzeichen
Grundfreiheiten
Karel
Konflikten
Leonardo
durchgesetzt
friedliche
fundamentally
mündliche
Rahmens
Simply
consulted
symbolic
zuverlässig
##LL
##erst
##schätzen
afterwards
angle
verschoben
Ärzte
##ati
##head
##hotels
Wärme
ages
besetzt
indispensable
radiation
shoes
untereinander
##zio
Eintrag
Low
Nationalpark
Statt
Zulassung
advances
avoiding
colonial
##ifikation
##llt
Allgemeine
VI
eligible
seaside
veröffentlichten
##iate
##schreiten
Albert
Energieversorgung
Eurex
feiern
übrig
Erreichen
Wurzeln
entity
gewählte
Jahresbericht
Materials
engagement
jährliche
kompatibel
##cial
Folglich
Rimini
cooling
erschien
vineyards
vorne
##betrag
##ith
##ugen
1969
adidas
endless
fiel
##lis
##vert
Geschichten
entities
powered
pull
##bestand
##ght
Drive
Hollywood
beitreten
dauerhaft
dreams
lawyers
##verhältnisse
Manchmal
anstelle
clarification
fehlende
ideological
##nimmt
Alkohol
Golfplatz
designated
müßte
##sson
ausgedrückt
sozusagen
vice
Boutique
bedeutendsten
suspension
##club
Carlos
Interview
Ostsee
Petersburg
haven
##kes
Kommentar
Zubehör
hôtel
mehrmals
##ühren
1500
Supervisory
Workshops
geklärt
qualifizierte
reproduction
wozu
##raut
Ernennung
Fertigung
Gastfreundschaft
Hinsichtlich
Outlook
laying
Hilfen
Standpunkte
advocate
##tellen
Aufträge
Informationsgesellschaft
werte
##48
##GO
##utet
Channel
subscription
workforce
##ads
##space
##zigen
außergewöhnliche
limitations
rechtlich
CAD
luxuriöse
##suchen
dive
frischen
plate
teach
toll
verglichen
warmen
##musik
##prache
##ree
Partners
dial
donors
infrastructures
korrigieren
sad
somewhere
tight
ECHO
Erleben
Leistungsfähigkeit
Stern
cargo
gefolgt
reinforced
Being
Christians
effizienten
qualities
##imo
##mit
Chat
Label
Norwegen
Satelliten
score
sincerely
washing
authorized
explanations
hinzuweisen
prompt
steigenden
supporters
##ctions
Ganzes
Maison
highway
ließen
##aux
##bewegung
Exhibition
Komponente
Nobel
finishing
##35
##ani
##defizit
Wunder
arriving
dogs
sozial
unvergesslichen
##bewertung
##enz
5th
Blizzard
Welthandelsorganisation
contest
gesorgt
shock
##ò
Frontex
Voraus
inevitably
Binnenmarkts
gaming
##shire
Durchschnitt
Large
Mitwirkung
UV
einzustellen
racing
stroll
threatening
##nds
Plug
halt
vorangegangenen
##piel
Bier
Flüchtlingen
Regarding
vente
##asse
intergovernmental
verbieten
##essen
Converter
Indonesien
Memory
Peking
entworfen
pack
ruled
seminar
##VA
##ierungen
Days
Oracle
complement
defeat
indirekt
noisy
systematisch
Cannes
Gleichbehandlung
unterhalb
##oc
Abfälle
Festung
genügt
realised
##rig
Linken
bemerken
besagt
traditionell
tube
vorhandene
##pp
Johannes
Schiffen
steckt
universe
zahlt
##typ
Spanisch
existed
incident
waves
##din
Berechnung
Neuigkeiten
abzielt
Parlamenten
Präsidium
controller
openly
Engine
Fokus
Mühe
Zielsetzung
blocked
umfassendes
##steuer
##ändischen
Aufrechterhaltung
Much
Vegas
skill
wunderbare
##world
RI
Stefan
Vielmehr
annually
ausgebaut
elegance
grave
##BC
Netzes
Wohlbefinden
##netze
Application
Button
electronics
gerufen
offset
reviewed
tatsächliche
writer
##dern
##ometer
4th
Info
Statistik
attempting
weitergegeben
##zeichnung
anstreben
ausgearbeitet
bag
dependence
religiöse
##ania
##führungen
##rds
adverse
##nica
##ündung
Bolkestein
Florida
Fuss
Vorredner
hairdryer
painted
wahrnehmen
##oll
##verhandlungen
belegen
entrepreneurs
gases
optimalen
robots
voices
##EA
##aufen
##iner
##riert
##tagen
compatibility
##greifen
Besteller
ausgestatteten
enjoyable
systematically
zulässig
##ös
Later
opera
##ktive
Annäherung
Simbabwe
carries
consist
gradual
##kern
##sbedingungen
Mozilla
Sortiment
audit
getestet
herself
##74
##osen
##saison
Zeitungen
impetus
outlined
##IR
Fest
Ratspräsidenten
Umstrukturierung
deutlicher
locally
rarely
schwarzen
vorschlägt
Finanziellen
Kühlschrank
Swoboda
Verkehrsmittel
abgehalten
##FF
Stränden
alpine
qualitative
tiefe
verbreiten
verwirklicht
Dörfer
damaligen
judges
mineral
##IX
##logische
Geldpolitik
Gleichheit
menus
##group
Dringlichkeit
Zentren
admission
fabric
mounted
shore
##meldung
73
Allow
Barnier
coherence
distant
späten
##orts
Ansätze
Beachten
Direkt
Infrastrukturen
Solange
invites
joy
stoppen
trail
##sted
170
Demokratien
Marie
Wissens
decken
verschwinden
##ios
##making
##ype
Landschaften
Little
NOT
Stellenwert
Zuerst
interference
kompliziert
##ides
Konzerte
SIS
await
hell
##horn
##iness
Dubai
Signale
WiFi
decoration
interventions
leichten
sexuellen
tremendous
Panel
corporations
industrielle
##leiter
##licht
##ße
Scott
advised
allmählich
beautifully
hazardous
herunter
insight
quarters
subjected
##swerte
##wegen
Gefangenen
Säule
Währungen
anlässlich
giant
hopefully
korrekte
printer
##atur
##tliche
##ückt
Johannesburg
##bares
##folge
##veranstaltungen
Criminal
SS
Vermarktung
regelmäßigen
supplement
##gebühren
##gipfel
##tar
Airways
Multimedia
Möbel
activated
erweiterte
##allen
##hrung
##kenntnisse
##rahmen
Mehrere
Night
legendary
##zuweisen
Twitter
großartige
loan
overnight
##häusern
##äumt
Substanzen
befreien
viewing
##iell
Busse
Einladung
Generalsekretär
Operationen
attraction
chances
critique
imperative
libraries
quasi
repression
##cate
##ranken
##wirkung
Marx
Möchten
Visual
antiken
##ossen
##vor
Ethernet
SPA
YORK
anmelden
bewirkt
grass
hosting
parlamentarische
schwedische
silent
##dieren
Geburt
Zellen
benötigten
maintains
##stische
##vin
Brand
Bruder
Spam
autonomous
delivers
proliferation
##don
##ori
##wear
128
Basic
Indikatoren
Sofia
Sämtliche
anfangen
langjährige
worker
##ffe
##interessen
##ès
Lama
installing
prevents
simplified
vorrangig
##CD
##ison
##nel
##stic
74
Fristen
Milch
Sicherheitsrat
Zentralbanken
detection
distribute
gewöhnlich
klares
wasn
##erzeugung
##hängen
##nas
Autonomie
Baroness
Fan
beantragen
beeinträchtigen
calculation
filters
frühere
personality
vacuum
CPU
Gesetzen
exceptionally
##ister
Behinderungen
Bern
Chancellor
Kompromisse
Net
Reden
discretion
##weis
Infos
clinical
geteilt
interfaces
loaded
##ibility
Zealand
horses
profitable
upload
##wehr
Abwicklung
dust
##lves
Lanka
Mitgliedsstaaten
disagree
gather
hearts
veröffentlichte
##liegenden
##rich
Automobilindustrie
Print
häufiger
##banken
##nal
1972
Nothing
democracies
hinterlassen
indirectly
operative
reveal
schöner
wünscht
zweimal
##row
Bluetooth
Griff
bestellt
thirty
##kirche
360
Controller
Entschädigung
Innsbruck
civilians
symbols
Projektes
Unserer
abuses
decrease
geschätzt
incorrect
orange
##bekämpfung
Back
exclude
revolutionary
technically
tram
östlichen
##stisch
Balance
Egal
complaint
mild
pine
##95
##uito
Chechnya
dauerhaften
monopoly
##lien
##programmen
##üllt
Anreiz
Mario
adjustments
betreibt
closure
nachzudenken
##oke
Azur
Foren
Künstlern
schien
##lichkeiten
##vas
Benutzern
Doppelbett
PVC
Romanian
gesetzlich
meint
protests
Canaria
Freedom
Vier
bicycle
fossil
##ury
Nichtregierungsorganisationen
criterion
mieten
wishing
##ament
##anz
Cash
Diktatur
determining
zog
Athens
Jack
Spirit
bekräftigen
dürften
gründlich
rigorous
##ello
##sburg
Bologna
Räumen
Studies
genauen
gezielt
neo
origins
##herrschaft
1701
Applikationen
adequately
bekam
guitar
mittel
quo
##aging
##gert
##ull
Anmerkung
Augenmerk
austerity
beantragt
harten
sa
selecting
##31
##erie
##geschaltet
##nter
##verhältnis
Environmental
Migranten
koordinieren
##rne
Gesamtheit
ausgeübt
grade
reasonably
##cked
##onische
Sofern
Verpackung
begab
distinct
verstärkten
vorausgesetzt
Aufsicht
Bangkok
Nachteil
ODER
Volkswagen
bags
ranges
saubere
##verbindung
1980s
Ebenfalls
Hongkong
Vorstand
gear
##heben
##uation
##ños
Einwände
GVO
Jordan
MIDI
inkl
resolving
Lauf
Unless
##richten
##rige
Local
Logistik
interpreted
qualifizierten
resumed
Everest
Völkern
arises
criminals
healing
weitem
##ielle
##nze
##ows
##ré
##sport
79
Einblick
Inanspruchnahme
Militär
theoretical
vernünftigen
##iken
##lings
##ño
Gate
erreichten
mixture
yield
Sahara
Terror
beliebt
elite
margin
newest
stimulus
##bereitschaft
##ched
##quent
Erneuerung
Früchte
Kapitalismus
Statute
ausgewogene
dänischen
examining
german
legte
posed
stones
##stehende
##uss
##zon
Ukrainian
Verbrauch
tensions
Echtzeit
Einfluß
Nachbarschaftspolitik
Orientierung
ausführliche
globe
mangelnde
vereinfacht
##urse
Lee
Rücken
abends
envisaged
##fel
Colombia
Klick
Meister
SL
Son
Upon
beweist
engagieren
enhancing
erkennbar
haftet
perception
##att
##metric
Direct
Haushaltsjahr
Jahrhunderte
Statut
einbringen
##int
##siert
##uda
##utter
behindert
gesetzliche
persönlicher
Catholic
Cotonou
HOTEL
Latvia
Users
einsetzt
excuse
vorzubereiten
##ehrt
Cube
limitation
moralische
nah
perceived
rear
restrictive
##cript
##stechnik
##tery
Eleganz
Railway
beliebtesten
##iker
Bavaria
Beta
Festivals
rank
##oli
##wärts
Konsumenten
Reparatur
gründen
pushed
steuern
##MB
##rel
##zunehmen
Einbindung
Mercosur
Netzwerke
abstained
nahmen
87
Bulgarian
Direktor
Italiens
Kleidung
Orchestra
Solidarity
chamber
tab
##rive
Brown
Gerne
Journal
Rhine
Zeile
Zinssätze
beside
passenden
terraces
##bird
##gieren
##ngen
##rno
##van
stating
Naturkatastrophen
Photo
formerly
scrutiny
thereof
vorbereiten
##45
##flüge
Germans
Nachbarschaft
Officer
Punta
Teilnehmern
immerhin
##fahrten
##wenden
##xt
##zogen
Gültigkeit
disastrous
gewiss
touristischen
##bia
##toren
Autorität
formally
gehörte
gelöscht
nos
pointing
refusal
tip
##verteilung
asks
bemerkt
ceremony
harmonised
machten
smoke
strikes
##aufnahme
##behörde
##shop
Save
carriers
gewachsen
nearest
Still
eingeben
erzählt
gültigen
literally
distributors
overwhelming
##eite
##fahrzeugen
##zustand
Internetseiten
Konzern
Königreichs
Stephen
analyse
asiatischen
breeding
furnishings
luck
##hill
##ierbar
##plätzen
##steuern
Chris
Rollen
foster
securing
workplace
##KS
##geld
##programms
##bal
##ivität
##try
##wan
Paradies
Suchen
abandon
innocent
##RO
##loser
Beförderung
Dienstes
Kloster
aufweist
breaks
tolle
vielfach
za
##LS
##sor
Gesundheitswesen
Streitkräfte
letztes
procedural
unilateral
##elles
##liert
##zutreten
Geschäfts
bands
##ther
AC
Anpassungen
Dom
IGC
Tech
pedestrian
realistisch
statute
##kapazität
Especially
compromises
delle
pillars
##41
##möglichkeit
##prozesse
##tism
Dafürhalten
Passagiere
dramatically
ferry
matches
besichtigen
hinzuzufügen
instant
packed
preference
tariff
Besetzung
Demokratisierung
Spielern
Toleranz
identifizieren
linking
optimieren
passive
plates
preservation
sincere
vierten
Major
Persönlichkeiten
favor
grundlegend
worried
##ffer
##gler
##lina
83
Canadian
Höhepunkt
Schottland
abilities
ageing
cotton
niedrige
##lence
##ände
accommodations
customized
validity
##ava
##sfonds
Depression
Folgendes
Forscher
Musiker
fühlt
limiting
seitdem
shooting
visas
##gna
##lager
englische
ernannt
wirft
##eth
##holz
##stream
##örung
Kalender
Prince
fortzusetzen
layers
safeguarding
wisdom
##ading
##nern
##ufer
##verbot
Against
costly
paint
Artikels
Außengrenzen
Democracy
Erkrankungen
Ganze
Kindes
Stellungnahmen
reactions
##lut
##mäßige
##uild
Again
Hoffnungen
Manchester
Production
admitted
commodity
##logischen
##tly
Political
coins
erfassen
sensitivity
##99
Auftraggeber
Bundesrepublik
Congo
Insofern
Malware
Quartal
reiche
woods
##MP
Buchstaben
Maßstab
Rate
Termine
fragile
Interpretation
Nordkorea
bid
decor
doppelt
geschlossenen
integrating
samples
##ution
Messenger
Zucker
geführten
Begeisterung
FC
Lust
Smart
anzugehen
behold
holes
protective
spell
wire
##finanzierung
##ila
Erwerb
##ücke
Solarium
Sozialpolitik
abzulehnen
booth
hört
surgery
thinks
##93
Defizit
accessed
bewundern
vorzuschlagen
##DI
##egt
##fällt
Resultat
attach
belt
chemischen
voranzutreiben
zivilen
Komplexität
Labor
Lady
Nachfolger
eignen
fits
fünfzehn
römischen
wiederhole
##tionen
Eurocopter
Gibraltar
Import
Terrace
consolidated
counts
invoice
wished
##AI
##lance
##ope
##uk
Nichts
Petitions
Rechtssicherheit
Vorbehalte
ausmachen
divisions
##dio
##ju
##steller
##teilnehmer
##äumen
Creative
certificates
tries
unanimity
##egel
Störungen
Zivilisation
bedürfen
berühmt
terrain
##PP
Afrikas
Kanäle
altitude
festhalten
##design
##srechte
##urm
Roth
Written
credits
tägliche
1930
750
Giovanni
Tuscany
communist
exe
gaining
households
##mate
Gegebenheiten
Jacuzzi
Tschetschenien
couples
transported
##bücher
##hes
Entscheidungsträger
Ganzen
congratulating
keyboard
legacy
ums
verweist
##fang
##mmung
##rain
##spolitische
##ür
HTTP
Ramblas
Schluß
dahingehend
schwarz
wertvollen
##mir
##wendet
Unix
Whilst
berührt
concludes
denkt
studying
zuverlässige
Looking
Wolf
cathedral
modular
verschärft
verteilen
Monaco
beglückwünsche
modification
safer
variables
wanting
##flation
##ign
##lus
Campingplatz
worauf
##firmen
##ierend
##splan
##tun
##ural
##äden
Angeboten
Downloads
Gewährung
Navigation
Store
council
##nieren
Arabia
Aufklärung
Enter
Medina
Rose
accompanying
diversen
endorsed
transatlantischen
verlängert
##hing
##nation
##rc
##rix
##schäden
Breite
Seattle
UPS
amtierenden
profession
##aktion
##graphie
##ground
##pal
##put
##visor
Canal
Entwicklungspolitik
Monats
Sehen
energies
unterstrichen
##nah
Aufstieg
FREE
Immunität
Industriepolitik
burning
memories
Ära
##met
142
Beispielsweise
demonstrations
em
intuitive
##kampf
##uchen
##vertreter
Porsche
Ziels
aboard
außergewöhnlichen
execute
massiven
punishment
##BO
##born
##forderungen
##gic
##prachen
Annex
bekämpft
einzuleiten
insert
##handlung
##menü
##sbehörde
Anzeigen
Bike
Guatemala
Sydney
abzuschließen
english
serial
Natura
amtierende
broadcast
fliegen
##jekte
##nos
aiming
begrenzen
galleries
renovierte
versprochen
##49
##chs
##quet
##sichtigt
##standards
Erwachsenen
Geschäftsführer
Magazine
anyway
cease
sympathy
vereinbaren
##cation
##fo
##restaurant
Potential
Volkswirtschaft
fat
ours
pricing
sums
##annt
##ech
##fizieren
##old
##rag
Entdeckung
Später
abgeschafft
pan
ray
rolling
sequence
stabilen
tonight
tracking
##szentrum
Newspapers
Norm
Solar
irgendeine
##rap
1971
Werken
classified
detention
direkter
hunting
inwieweit
obstacle
ok
##nin
##place
##rra
Fahrrad
Herstellern
beobachtet
geachtet
profitiert
städtischen
trials
##amp
##hrte
Ansprechpartner
Erstellen
Fahrzeugen
Mittag
Neither
Price
Therapie
Zeitalter
consultations
feste
geschmackvoll
identifying
koordiniert
multilateralen
##bin
##erer
##nta
##orie
blockiert
hängen
lehnen
##fication
##toff
comfortably
dorthin
tiefen
##faktor
angeführt
deciding
dynamischen
pdf
tschechischen
verify
##hale
##ihen
##lter
##mie
##tial
Hunderte
Sisko
automatischen
meaningful
##ered
##ierende
Johann
Rica
buyer
downloads
generating
ideology
iranischen
ran
unmittelbare
vertical
##gkeit
##ilt
##tain
Anyone
Kameras
emphasize
fastest
festgehalten
immunity
intimate
meter
1965
Decision
Instabilität
Kohle
Spiegel
Wilhelm
diplomatischen
elf
inviting
panorama
proves
regelmäßige
##lav
##qua
##wig
Akademie
Kernenergie
Model
Redezeit
convincing
endeavour
queries
##kurs
Bedrohungen
Diejenigen
Economy
Gegenwärtig
Gutes
Schließung
ausgestellt
ausreichen
classification
consolidate
lending
tendency
##FA
##rufen
Konvents
Moldau
ausgehend
ausgenommen
begrenzte
leidet
pushing
transform
Bestrebungen
Masse
Verhinderung
Vermögen
basierend
licensed
modernsten
portion
##lier
##voir
Jobs
Oliver
guilty
vibrant
##center
##läuft
##missible
##pruch
##spolitischen
##zuziehen
84
brilliant
cattle
settle
##vers
Disabled
Landwirten
Mozart
Weiter
erfahrenen
ersuchen
praise
psychological
reader
spreading
##RI
##trag
##äuschen
Elektronik
Entschließungsanträge
bewahrt
noble
##datei
##ked
##lute
Along
Oper
Richtigkeit
Verbündeten
führender
gesucht
halben
minibar
Überleben
##ales
##rre
##tausend
Gegenden
acid
dioxide
intent
versetzen
##ube
##zlich
Ferienhaus
Layout
aufhören
beachtet
bottle
container
irrespective
smallest
tank
##con
##urable
Anwendungsbereich
Beitrittsverhandlungen
festivals
gefangen
jazz
landing
##erbe
##hören
Gepäck
Hindernis
Metal
Palast
Zentrums
pose
schwach
sämtlicher
wunderbaren
##aler
##mengen
##sitz
Canary
Zutaten
broadly
##länge
Cruz
Schätzungen
audiovisual
distinguish
invasion
privater
ruins
surfaces
##dische
##ols
##rierung
Akzeptanz
Algeria
Kongo
abhängen
admire
ausgewählte
illness
medicinal
##abend
##büro
##gliche
##ru
Five
Gestalt
Recently
Schlacht
Warsaw
readers
##ike
##ssystems
Beträge
Lyon
Spock
bugs
conscious
definitive
dryer
frische
remedy
##nate
CIA
Guantánamo
Meinungsäußerung
Publikationen
Wand
bereitgestellten
berufen
complementary
confirms
kopieren
nightlife
popularity
traditionally
unweit
verwandeln
worlds
Übermittlung
##hebung
Bürgerrechte
Castro
Gedanke
Olympischen
Somalia
Upgrade
Virtual
deadlines
Help
agieren
bestraft
lifts
##gefühl
##tens
Artikeln
Folter
Lange
abschließen
adjacent
dynamische
macro
zugreifen
##how
##kurse
##ours
Depending
Europäisches
Learn
Sozialisten
Unterricht
bedient
buttons
delegations
witnessed
##achtung
##bilder
##cm
Tempel
barrier
developer
##hs
##sausschuss
##shed
##wang
##zeugen
SEO
attraktive
completing
##33
##sanlagen
C6
Erkenntnis
boutique
diesbezüglichen
gemeinschaftliche
geräumigen
painful
salle
schlimmsten
##43
##77
##ährt
Wanderungen
beherbergt
benachrichtigt
quest
##GP
##RM
##linge
##sgrad
##ängen
Auflagen
Championship
Phasen
höherer
##DC
Portfolio
Verlag
activate
exploited
##mb
##transfer
Erdbeben
Flächen
assessed
aux
enemies
BC
ELDR
Endes
bestanden
mobilen
textiles
Hague
Ungleichheiten
cream
definitions
improves
##CP
##atory
##zusehen
Salon
conservative
getreten
holder
paragraphs
roten
##14
##cale
##läufe
##sektors
estimate
renewal
scheinbar
tausend
verbindlich
##berger
##eto
##olo
##polis
##tige
Behandlungen
Strecken
Whatever
Zeitschrift
echter
modernisation
volumes
##rial
##round
Erfassung
Nachteile
Un
Wandern
YouTube
starker
Photoshop
Turm
advisory
ausgeben
baths
beat
bekanntlich
irgendwann
legislativen
mood
##tine
Chianti
Holding
ausgeliefert
markiert
##gab
Century
Hilton
Schwerpunkte
gesenkt
inland
##86
##berry
##lets
##pfung
##ulous
Fülle
Gift
Kriterium
RAM
Rhein
Standorten
macroeconomic
modifications
##ribe
Finanzminister
Lufthansa
anzusehen
dairy
disappear
gathering
mache
Maus
Medium
clauses
coach
debts
fulfilling
vergleichbar
##89
Begrenzung
LabVIEW
Zwischenzeit
disabilities
indications
temporarily
##hmt
##ützt
FTP
Manuel
Umstellung
abzugeben
coating
enforce
positives
##ission
##kunst
##nkt
Vorsicht
broadcasting
earthquake
unified
verdanken
österreichische
##blatt
##igation
Chinesen
Pop
donor
ermittelt
sends
##graphic
##pf
##urt
##ächer
Beibehaltung
Cohesion
Hochschulen
Hot
Häusern
Nutzern
anzuerkennen
ausgerüstet
fare
fridge
##oting
Felsen
Objective
kreative
multinational
##gerechnet
##mern
##ören
Etage
Fortunately
Inzwischen
Verkehrs
diplomacy
geschenkt
intelligente
Übereinkunft
##chlichen
##fort
##igte
##ücken
Lizenzen
Viel
attacked
kommende
##achtet
##stätte
Additional
Allein
Schlußfolgerungen
Spiels
ads
begrenzten
irgendwie
snacks
vierte
##gg
##tant
Gleichwohl
diet
verhandelt
##igkeiten
##werks
2050
Ansprüchen
Funktionsweise
eventuelle
exotic
verbundene
##cu
##ziehung
Soft
Tagungen
courtyard
introduces
kommunizieren
künstlerischen
pipeline
versuchte
virtuellen
wenngleich
##fragt
##initiative
##kehr
13th
Donald
Drucker
Schritten
ordering
##erei
##etzen
commands
distinctive
gratuliere
imbalances
kommunistischen
protects
rhetoric
##AX
MPEG
dos
gegebenen
responding
##rechten
##wap
BAE
Eingabe
Konvergenz
passport
problematic
transnational
##fizierung
##schau
##vice
Franzosen
Meilen
Stabilisierung
birthday
indischen
westliche
##berge
Bio
Dienststellen
Klassen
Kreatur
anspruchsvolle
economists
prerequisite
versorgen
##investitionen
##voke
Welle
Zertifizierung
activists
°C
##chlüsse
##gelassen
##hmen
##ives
betragen
responded
retained
tons
très
##artig
##pelled
##üssen
##х
Daraus
Mix
Promenade
UEN
sorts
##FI
##ev
##kar
##nutzen
##toffe
##verlust
Malaga
Pfad
Seminar
fabulous
settlements
Mitgliedsländer
erholen
tasty
##42
##ndt
Ali
Fotografie
Zustellbetten
incidents
##51
##ae
##cco
##du
##ystems
##ächtigen
Designs
Etagen
Police
abend
angemessener
coastline
forestry
processor
zuständige
##bei
##üten
Bandbreite
MEDA
Poettering
Tabellen
captured
safeguards
Schnee
alternativen
bathing
confidentiality
##ehen
##gefallen
##stil
##wertung
Images
Konsolidierung
Meeres
durchschnittlich
folgte
mittelalterlichen
##85
##bezogene
##itt
##lent
Anleger
Equipment
Erziehung
Estland
Gemeinschaftsrecht
Pisa
blocking
gambling
husband
##esten
Genauigkeit
SA
attitudes
encourages
pressures
thick
##Card
##strom
##stücke
##wein
##änglich
##én
Davon
conducting
correction
erzielte
qm
##44
##92
##preises
##rary
##sting
Carl
Heidelberg
Ministerpräsidenten
Tiefe
Viren
baggage
drittens
greift
harder
preserving
purchases
##aving
##mäßigen
##ähren
Croatian
Erhebung
Formate
Min
PCI
Parking
Reichweite
floods
gemütlich
sichert
zurückkommen
##ote
County
Dolomiten
Jahreszeit
aufrechtzuerhalten
boom
dropped
leitet
rid
stützt
wahrgenommen
##gelöst
##page
##pped
##verband
detect
evaluated
schlicht
veranstaltet
##anteil
##baut
##hic
Clients
Gender
potenziellen
##hlung
##seiten
Herzegovina
Rohstoffe
Translation
antique
klarstellen
unglaublich
##13
##oil
##orte
Arbeitszeit
Darauf
Far
Kontinents
behindern
marble
oasis
wirksamer
##amm
##geschwindigkeit
##hm
##prach
##zte
PXI
Posselt
Type
Workshop
baut
geladen
grey
warrant
widerspiegelt
##cle
Anschließend
Ersten
Kino
cooperative
geräumige
shorter
staatlicher
Angola
PRO
couldn
grid
toxic
##CT
##ciones
##glichen
##lieferung
##status
##toria
Follow
Griechenlands
automobile
cabin
timing
##och
##ysteme
Finanzielle
Fischereiabkommen
Versicherung
attraktiven
betreut
encountered
weakness
zusammengestellt
##FC
##leiste
##lex
##regierung
Crew
Jones
Vorgang
bedingt
freiwillig
organs
##LT
##rey
Interventionen
Motoren
assessing
bestehend
erhebt
erhielten
perfekten
streben
tag
understandable
untergebracht
wirst
##echt
Comfort
Dry
PayPal
##iable
##igend
##ы
Darlehen
Fundament
Kohäsion
Likewise
evenings
gate
kritisieren
Überwindung
##22
##34
##insel
##sucht
##verträge
Dell
YOU
deployment
eco
ggf
ratify
scripts
##ktiv
Begleitung
Dolomites
Haltestelle
Kriege
Löhne
PS
##eilen
##ject
##rams
Platten
democratically
studios
vorgesehene
##analyse
##tests
##ów
Sitzungsperiode
Zusagen
aufhalten
erhöhte
liquidity
routine
##GH
##gebrochen
Cancún
Räumlichkeiten
beeindruckende
confidential
directors
freundliches
intensiven
policymakers
vorzugehen
##ppen
##rip
##zellen
Ball
Simon
irgendwo
verwandelt
##KA
##freundlichkeit
##äglich
10th
Cardiff
Hotelzimmer
Kolumbien
Slovak
anerkannten
eliminating
graphical
guard
pursuit
##bor
##stätigkeit
##taten
Korrektur
Lieutenant
Mannschaft
Steel
Upper
Wäscheservice
closest
headed
pflegen
##97
##platten
Erweiterungen
Gothic
Herzlich
befreit
gestrichen
imagination
nachfolgenden
stetig
vereinbar
Active
Aufpreis
Montreal
Organ
einrichten
gewaltige
quoted
steigende
tranquil
tunnel
##gearbeitet
##lieben
##ligen
##ssicherheit
##zia
SilverFast
erwarte
launching
unzählige
##61
##alismus
##macher
Demo
Leiden
Steinberg
Zusammenfassung
architect
erbringen
races
verursachten
##ITY
##cular
##rigen
##schneiden
##smethode
##vising
Dame
Lande
billions
experiments
reservieren
schriftlichen
##uri
Male
beauftragt
##bergen
##kation
##krieg
Angestellten
Cafés
Sicherstellung
recognises
##fähigen
##hon
##ride
Auskunft
Egyptian
Modellen
hosted
israelische
plot
privileges
##etzung
1966
Sites
Want
genocide
morgens
organ
##itor
Beschränkung
congress
überdenken
übernahm
##81
##fordern
Kurdish
Verschlechterung
demselben
employ
##media
Bestände
Brüder
Gremien
Sender
aufgeben
batteries
desert
economical
geeinigt
injury
lands
outermost
trendy
##aked
##ined
Birma
Plattformen
aufrufen
gemeint
holders
##ommen
##worthy
14th
Nordirland
PR
Secure
Turin
documented
successes
widerspiegeln
##fertigung
##inder
Ausschüssen
Hauptziel
Mittagessen
Südtirol
Wohl
crash
dirty
inappropriate
magazines
verläuft
vermieten
verteidigt
##zonen
Euratom
Renten
Schwächen
Scottish
forever
pretext
##av
##irs
Articles
Bemühen
Null
belastet
inspections
titles
##rank
Museums
Nepal
SAT
Strafe
Texten
begeben
continuity
exakt
experiment
random
##orten
Forschungs
Seminare
Sozialdemokratischen
displaced
exzellente
hoping
initiate
municipal
persecution
visibility
Algerien
Filmen
Property
Sozialpartner
juristischen
tailor
verlängern
##62
##assen
Anleitung
Pakt
Profile
aufgeführten
gründete
hervorzuheben
overseas
spam
viruses
##fs
##gründe
##rance
##sland
Ausbruch
Benz
Eigentums
parent
patch
##beratung
##nom
##rit
##word
1944
Blumen
Klaren
Preises
Rechtsrahmen
Thessaloniki
impressed
stecken
##chliche
##ema
##ennung
##machung
##rete
Aparthotel
educated
gebucht
holen
japanische
template
##gelegenen
##get
##hou
Exporte
Kamin
Rechtsprechung
Währungsfonds
bilaterale
bold
emergence
entziehen
##chner
##night
##ract
##vable
Feedback
genetisch
jemanden
optimized
varying
##enter
##orm
Competition
Toskana
feasible
fügt
##dar
##erklärung
##imer
##č
Angehörigen
municipality
persuade
stresses
##istischer
##sarbeiten
Machine
aged
institute
optimiert
schweigen
ups
##santrag
marking
sexuelle
##TM
##idet
##lden
Angela
Appell
Komplex
anschauen
anticipated
aufrecht
deliberately
##ncing
##oid
##rise
##rückt
##spunkte
Gegen
Konservativen
Periode
Reisenden
ThyssenKrupp
gelegentlich
starb
statutory
##78
##rauchen
##rika
Warnung
cure
durchschnittliche
maßgeblich
oberste
vegetable
##ebene
6th
Fusion
conscience
este
propaganda
retention
withdrawn
##atik
##ppe
##vorschlag
Subsidiaritätsprinzip
ed
schuldig
thirds
##ikel
##preisen
##ć
Astrium
Estate
Gesichtspunkt
##98
##europäischen
Harmonie
Seven
Spannung
Vollständigkeit
foodstuffs
korrigiert
liberty
weite
Demokratischen
Einsparungen
Eis
collecting
eu
measurements
sheep
territorialen
##otic
##rauen
##vez
##weite
1956
Ad
Hochschule
Kompromiß
anscheinend
fairer
galt
weaknesses
##nahm
##wich
5000
Chemikalien
Hinzu
Pfeiler
diagnosis
disappeared
erzählen
flexiblen
historisch
metals
protectionism
untersagt
##eral
##zza
Aufteilung
Sciences
Temple
Wagen
convey
gemachten
recreation
schaden
##asien
##auch
##faktoren
##onischen
Polo
Wollen
alleged
earnings
##sindustrie
Politikern
Schriften
Symbole
entnehmen
entsprechender
heruntergeladen
lifelong
lifting
nein
ranking
##tance
##turm
Aufstellung
Grafik
Prüfungen
Tauchen
affair
shame
##deckung
##fix
##igh
##uration
Mare
Records
Rosa
Stoffen
Tragen
billigen
definitiv
geschah
Claude
Jahrestag
beschleunigt
reminded
##PT
##ror
##tlement
Einerseits
PHARE
Unfall
einheimischen
possession
ranks
replacing
topical
##EP
##OC
##eht
##mäßigkeit
A1
Einleitung
Machen
Torre
configured
demnächst
ihrerseits
lock
##bahnen
Palais
reveals
slight
versorgt
wiederherzustellen
##haltige
##taaten
1900
1957
Delegationen
Leser
barely
beheben
compiled
coordinating
eggs
laundry
##ono
##sorge
##uellen
##wirtschaftlichen
Affiliate
Konsum
OSZE
competitions
drag
fließen
Aussehen
Catalunya
Chirac
Inneren
Stop
erstklassige
momentum
rocks
writers
##chlich
Gebäudes
Messen
Schauspieler
concessions
grain
mines
positively
refreshing
shortage
##artigen
##gation
##vention
Gefühle
NH
attentive
broadband
solarium
##CK
Cape
Verhaltenskodex
accessibility
attending
deck
gänzlich
kultureller
productions
resist
##gemacht
Besatzung
Lettland
OSCE
backup
chip
geführte
hinnehmen
listing
networking
stretch
toys
voltage
##ctic
Alt
Gewässern
Handhabung
Streben
bond
defines
tens
weiterentwickelt
wholly
##eria
##icherheit
##jet
##leitungen
##rine
Kommissars
bedaure
folk
instances
poorer
socialist
##EU
##diert
DA
Singapur
WordPress
celebration
einschlägigen
osteuropäischen
segments
stainless
##eiten
##esischen
##uf
##unded
##ätigen
Freilassung
Mercure
organising
steep
varieties
##aring
##body
##schriften
##ungs
7th
Bibliotheken
Mitbürger
Viertens
density
entfernten
establishments
facilitating
precautionary
thou
##94
##ann
##enten
##outs
##portal
##quest
##race
##zeichnen
Cleaning
Nächte
unternimmt
##PO
##osa
##pes
##phäre
##tour
##vine
Ansehen
Berichterstattung
Botschaften
Patch
Rad
biologische
contradiction
derartiger
gentle
minded
veranlassen
verwendete
##76
##NS
##ards
##boards
##pakete
##urb
##urf
##vereinbarung
Anstatt
Flusses
Spaniens
inequalities
threaten
uneingeschränkte
widmet
##anbieter
##ando
##dic
##ires
##loss
##riff
Garage
Quite
experimental
kostenfreien
shoulder
Damals
accomplished
ample
anymore
betreffende
beunruhigt
speculation
verbindliche
##96
##any
##ologische
##ption
Befürchtungen
CSS
Einfach
Lebensbedingungen
Sandstrand
bestrebt
elimination
gewahrt
portable
##dierung
##wachen
dossier
stieg
unterschiedlichsten
##voked
Gewähr
Jh
Momente
Nachtleben
Russians
bookings
eliminated
getroffenen
singer
vorkommen
##füllen
##lave
##ächtige
Gesetzgeber
Streit
altogether
arena
influences
verbesserten
zweier
##austausch
##nan
##ramm
Monitor
Near
Zusammenhalts
besuchte
chart
installer
strukturellen
successor
zeitlich
##pol
##verantwortung
##zurufen
1964
Below
Core
Liberals
Patente
accompany
nächstes
obgleich
stärkt
tanks
ähnlicher
##82
##nza
##pair
##serklärung
Stress
Verkehrsmitteln
herkömmlichen
##nces
Bayern
Klausel
Protektionismus
Scientific
auction
birgt
correspond
ehrgeizige
fähig
geplante
verweigert
##47
##ief
##imate
##rts
##sbehörden
Buy
Gründer
aufgegriffen
banana
boy
detected
mitzuteilen
strongest
transparente
Erleichterung
Erwärmung
##law
##volumen
Gardens
Lieferungen
Persönlichkeit
Unregelmäßigkeiten
Verstöße
factories
handelte
intensity
manually
vertrieben
##rb
Anbau
Champs
Laundry
Teils
disadvantaged
einbeziehen
inch
##mont
##weiten
Aufstockung
Ferrari
amp
dealer
honor
mount
möge
##langen
##räte
##sian
##öl
Akteuren
angekommen
attracted
begannen
updating
##26
##cion
##generation
##ietet
##kleidung
##werken
1948
Alpes
Atlantik
Badewanne
Gemeinschaftsebene
Total
Uganda
Wohlergehen
injection
multitude
preparatory
##mung
##sausschusses
##tze
101
Agent
Belastungen
Christus
Eisenbahn
Genfer
Geschäftsreisende
Koalition
Kommando
Nahrung
Rotterdam
Typen
Variablen
halls
herauszufinden
outline
wearing
##88
##eau
##sus
##uate
Befreiung
Bestandteile
Laser
Behauptung
Gastronomie
draws
einfaches
hinausgehen
hospitals
jenseits
##SP
Daneben
formulieren
gaps
löst
mails
privat
##pire
Clean
Electronic
Erzeugnissen
Ex
analog
aussieht
relevance
reward
upgraded
##fehler
##iums
##ulent
GMOs
Privatisierung
Sogar
abgedeckt
screening
wissenschaftlich
##ftung
##sendung
##versammlung
##zweck
Erlaubnis
Käse
Reisende
Walking
christlichen
deployed
devastating
disc
ermutigt
fortress
irregularities
negligence
turnover
##gst
##sraum
##zten
Milliarde
Zagreb
exemption
gedenkt
gefertigt
generic
shut
##FS
##hrlich
##instrument
##instrumente
##staatlichen
##üre
Around
GIMP
Plätzen
donation
objections
promenade
sin
##scher
##sformen
ANY
Corbett
Trading
archives
aspirations
diesel
recipient
stoßen
tariffs
##inary
##indern
##lade
##quote
##üstet
115
blow
commissioned
critics
dated
positioned
rot
schrecklichen
trinken
unterrichtet
unterstützten
##landes
##vergabe
##weisungen
Erasmus
Größen
Krankenhaus
Wiederaufnahme
befindlichen
geehrter
pair
wheels
##chule
##dat
##spieler
##verordnung
Arafat
Official
Schulungen
capitalist
zweites
##gon
##lagerung
##ued
Auszeichnung
Cambridge
Ecofin
Markus
abhängt
dachte
descriptions
einräumen
ganzes
##ière
Dalai
Herzegowina
Magazin
Vergabe
confronted
incredibly
zusätzlicher
##iler
##kommission
##tags
##ulf
1990er
AS
Almost
Liga
Stabilitätspakt
appelliere
college
entre
instruction
offenkundig
überschritten
##kus
##meldungen
##ub
Ankara
Gleiche
Questions
Verurteilung
Wallström
befürchten
bone
incurred
##ean
##eer
##m2
Gesundheitsversorgung
Infineon
Krebs
Salvador
Sex
polnische
sister
##güter
Ideologie
Zoo
pragmatic
##beginn
##europa
##inn
##rical
Münzen
Points
Stars
bridges
gewaltigen
gründet
halbe
midst
ruft
veränderten
vorwiegend
vulnerability
##fish
##nese
##schicht
1961
Afghan
linen
mi
repercussions
speeds
tissue
triple
wet
##format
##mmen
##oco
##standing
AVI
Beantwortung
Flora
Füßen
Instanz
Lärm
beliebige
guiding
journalist
##ierer
1962
Palm
chains
häufigsten
##63
##ishing
Chemie
Haushaltsausschusses
Linz
Paar
chef
cultivation
laptop
nationalism
organizing
peripheral
salon
unverändert
##ously
##zu
Ausdehnung
Laufzeit
São
Wellnessbereich
obliegt
stabil
älteste
##Point
##greift
##griff
##staatliche
Auseinandersetzungen
Course
Hi
Tunnel
Veranstaltungsräume
crop
ökonomische
##berichte
##ktor
##ochen
##sfähig
Brexit
Diagnose
Flair
Villen
sprachen
teilnehmenden
##würdige
Made
einzeln
kenne
nachkommen
passage
protein
verlaufen
##aria
##ouse
##sign
##ça
Anne
Frankfurter
Reding
Verwenden
aufgeteilt
competing
forderte
üben
##IO
##anda
##aufgaben
##made
Akt
CNC
EOS
Farm
Stärken
assumption
consultants
disadvantage
monastery
moon
regulating
slide
##aint
Ausserdem
ERP
Fine
Fische
Georg
Italia
historischer
hygiene
mile
solle
springs
temple
##fit
##iant
##verbrauch
103
Evaluierung
Konsequenz
Malaria
abzustimmen
cave
exercises
exportieren
folgendes
konkreter
lend
qualification
verfasst
weise
##36
##ervice
##raft
##road
##rove
Klärung
Kommunismus
Posten
Zufall
capita
fehlenden
sixth
##elemente
##ilo
##marktes
##sgebiet
##tischer
Alicante
Annan
Archer
Silver
Wäldern
bird
embargo
frames
lifetime
sustain
##alten
##lone
##zog
Brot
Goals
Kürzungen
Liechtenstein
Ludwig
Marc
angehört
emotions
flood
linear
sooner
transeuropäischen
variations
##iana
##nto
Continental
EURO
diameter
symptoms
tackled
##beihilfen
##bene
##vieren
##wick
Base
Graz
Leone
bedeutender
livestock
##finder
##nee
Mitentscheidung
Varianten
Werde
auszubauen
corresponds
cup
ehrgeizigen
herbeizuführen
issuing
virtuelle
##m²
##nale
GM
compensate
daraufhin
längeren
mounting
personalized
seed
severely
versichert
zwingend
Ökonomen
##asst
Jarzembowski
allgemeiner
ausgeht
flora
matching
realities
seinerzeit
umfangreiches
vegetation
##hone
##ikalen
##sache
##scribe
105
CAN
Columbia
Erdgeschoss
Kampagnen
Kohäsionsfonds
Maybe
Patrick
Self
behilflich
europaweit
jeglichen
kit
liberalization
picked
restlichen
teeth
tied
##fahrung
##rane
##uce
CRM
Commons
Pariser
Radisson
Residenz
Rücksicht
Schauen
Schwäche
complied
fi
##lles
##ändische
Klingon
Otto
Unit
architects
ernsten
gefährlicher
großzügig
refund
##coa
##eel
##ography
##zuholen
Buyer
Hard
Metall
distances
enshrined
occasionally
organisms
##NN
##pflanzen
##tend
Bestreben
Carmen
Dienstleistungsrichtlinie
Liikanen
Myanmar
animation
coin
excluding
geared
positiver
somehow
wins
##aum
##bury
##tungen
##würfe
Durchbruch
Friedensprozess
Lomé
Milano
Weihnachten
decides
drawings
hinein
##ggio
##künfte
##né
1970s
Conil
Haushaltskontrolle
Supreme
bürgerliche
erledigen
motivation
##halte
Auslieferung
Autovermietung
Battle
Doppel
Has
Martini
Oase
conversation
gemeldet
mothers
rehabilitation
signatures
##ić
1200
Banking
Cadiz
Körpers
Richtungen
ausgewogen
forbidden
pump
ueber
überarbeitet
##HA
##bearbeitung
##sbericht
Men
Schulung
persistent
prevail
Australian
Auswirkung
Dimensionen
Errungenschaften
chaos
chronic
financially
substitute
tot
voranzubringen
##arischen
##big
##oot
##suche
Erforschung
Telekommunikation
breast
##brücke
##ifizierung
##schlüsse
Betrieben
Certainly
Me
beeindruckenden
deliveries
fürchte
outer
##bria
##mische
##screen
Arabien
Donau
Iceland
Miles
Züge
bester
bulk
imstande
licenses
problematisch
promptly
renovation
##hus
##laren
##usch
##würdigen
Handlung
Lagerung
boys
notify
präsent
##39
##bis
##projekten
##spel
Andrea
Carlo
DEM
Einmischung
Imperial
Weitergabe
broke
juristische
shores
trillion
verfahren
##iano
##üte
Schriftliche
Serviceleistungen
Streitigkeiten
Verknüpfung
boarding
enchanting
herrschen
##craft
##svorschriften
##zes
##zyklus
##ä
Cohn
Pfund
TACIS
cocktail
delightful
liberalen
tout
unterzeichnen
verification
##ICH
##mut
MEP
Naples
Partition
bevorzugen
destroying
loud
powder
promotional
rice
seas
sensors
verarbeiten
vertiefen
überraschend
##sätzen
Applikation
Logos
Try
frozen
fulfill
##familie
##ift
##smethoden
1920
Kampfes
Nachweis
Serbian
simpler
studierte
tired
##arische
##oms
Diplomatie
Meerblick
Mitgliedstaates
anmerken
orientiert
secular
##hme
##läufig
Frühling
Rücktritt
absoluten
failures
fireplace
gourmet
informations
umgewandelt
voor
voraussichtlich
##glich
##tür
Ausgewogenheit
Erwägungen
Themas
diesjährigen
echtes
junior
komplizierten
recreational
##87
##ban
##dringen
##maßen
##miert
##rada
##rale
##stunden
##zin
Botschafter
Leistungs
Meinungsfreiheit
Unrecht
dear
erweist
privilege
resident
Ökonomie
##urst
Dienstleister
Umstand
advocates
deckt
juice
überschreiten
##books
##lers
##lim
##lässt
Abfahrt
Alzheimer
Eden
Jesolo
Josef
Mike
Unfälle
catalog
magnetic
nördlich
##geist
##rid
##risiko
##scht
##ählen
Bewirtschaftung
Platform
motto
thrown
uncertain
wissenschaftlicher
##oring
##presso
##sprozeß
##öne
Einigkeit
Gestern
Heinrich
IRC
Kit
Verband
Zivilisten
Zuschauer
orientieren
umfassender
##mis
##plant
##wen
##übertragung
Bevölkerungsgruppen
Innenhof
Orange
accurately
alarming
aufgegeben
breiter
extremen
##alo
##block
##cc
##dium
##ischt
##pfen
##wahlen
1939
Communications
Fahren
Gates
Nationalismus
Starting
Tanz
fragt
trace
unterstützte
##srate
##zwecken
Arctic
Dubrovnik
Eurojust
Father
Fort
GNOME
Wortlaut
earliest
einzigartiges
erneuerbarer
fabrics
langjährigen
licences
verhaftet
zusammengefasst
##pper
Vormittag
Yesterday
empfehle
##38
##rechtlichen
##schutzes
Bedauern
Early
Qualifikationen
Sharon
Valle
enters
entlassen
null
seasonal
##günstig
commend
occurring
phenomena
reinen
##PD
Gehäuse
Mont
Photos
administrator
anspruchsvollen
begehen
biotechnology
designing
gerechte
großartigen
persönliches
##hips
##kers
Plans
Umfrage
erledigt
simulation
sofortige
treating
Überschwemmungen
##ktiven
##wski
Fachleute
Fotografen
Prozessen
Standorte
deinem
exceeded
sensiblen
##maker
##ás
##äger
Globalisation
Málaga
Oomen
tuna
##attung
##ims
##wer
Anfänger
Managing
Russen
Unterscheidung
Weber
formulated
placement
##91
##DF
##getragen
##ots
##reden
##riebe
##zuhalten
Beyond
Di
Jahrhunderten
Ten
axis
defended
foreigners
restriction
##chneiden
##date
##itter
##sichtlich
##tres
Parlamentarier
Seville
einziger
elektrischen
establishes
etabliert
longest
potenzielle
##bie
##dlichkeit
##handels
##piece
##stellungen
Anleihen
Beautiful
Kodex
Mars
Schlag
ankommt
beurteilt
demonstrating
offener
posting
rises
Öffnen
##46
##cated
##konzept
##makers
##wind
240
Toten
auszuführen
confront
sudden
verschärfen
##54
##ctors
##kbar
##rdo
Franco
Keller
Strafen
berechnen
übereinstimmen
übersehen
##lice
##nischer
Aufschwung
Built
Enttäuschung
Sendung
Stolz
Verstoß
beherrscht
beträchtlichen
constituency
coup
mais
photographer
shapes
vorsehen
##sgruppe
##viel
##ägen
gezahlt
priced
##DS
##acy
##belastung
##etten
##lem
##raph
Emperor
Linke
Oft
VII
blicken
entdeckte
lehnt
static
trigger
##duced
##eu
##tore
##üsse
Beobachtung
CMS
forecasts
lacks
multinationalen
sitzt
specification
subsidiaries
tongue
überleben
Auftritt
Konzeption
Sichtweise
Touch
backdrop
bikes
buffer
jump
##abteilung
##anzen
##player
Disney
Installer
Motion
Skript
enforced
ethnische
jenem
offensive
##ault
##becken
##iest
##lished
##ministerium
##ruhe
##sdaten
##sung
##titel
##uy
Aktualität
Alan
Bestand
Color
Snacks
Waffe
accountable
deutlichen
echo
strengere
versatile
##encies
##eological
##forum
##owed
##pace
##samen
##sgruppen
Abs
Cox
Evans
Messung
Oil
Schengener
beneficiaries
incomplete
mankind
##SI
##atische
##schöpfung
1963
Bendit
Communities
Rund
literary
palästinensische
scan
sciences
würdigen
##fern
##führende
##pelt
##ringe
##sorten
##uchte
Beschleunigung
Kalten
gesendet
inherent
niedrigeren
possess
precedent
##icken
##onen
##sprachige
##telle
##therapie
##tzen
##ump
Stay
Telefonnummer
abolished
blieben
brown
devote
generates
magical
misleading
tune
##brauch
##chtlichen
##disch
##fasst
##risiken
##sprozesse
##verständnis
Bristol
Cameron
Glückwunsch
Photocopying
Seitdem
copper
eingenommen
kontinuierliche
##fassen
##iling
##leiten
##lungen
##nome
Auftreten
Geburtstag
Jungen
Tabak
Wine
angesprochenen
befand
luxuriösen
tiefer
Übersetzer
##bauten
##ergebnisse
##fleisch
##ulieren
##äten
Brazilian
Centro
Straßenverkehr
bevorzugt
documentary
erholsamen
freiwillige
ses
stellten
stricter
zoom
##bilden
##dis
Ansonsten
Fotokopiereinrichtungen
Gewässer
Liebhaber
Zuwanderung
expecting
injured
##LY
##bricht
##cking
##durch
##schön
Assad
Dark
Erinnerungen
Fitnesscenter
Lamy
TCP
Terrain
WM
aesthetic
likes
peaks
poses
scandal
suits
vereinen
worthwhile
##geholt
##litz
##reihe
##ässig
Knowledge
Roten
Steve
beizubehalten
detriment
exported
renommierten
strikt
wovon
##ativ
##ianischen
##wirkungen
Acrobat
Codes
Informationsschalter
Stufen
blend
criticisms
defect
gepflegt
lush
sahen
##basierten
##cca
##hauses
A6
Ausflug
Date
Jeden
Liter
Profit
discounts
encryption
lawyer
suspect
varies
Änderungsantrags
##55
##lining
##star
##tismus
##tourismus
##zwingen
12th
Bettwäsche
Tibetan
surfing
##anne
##hart
##kammer
##rity
##tera
230
Beitrittskandidaten
Entscheidungsfindung
Nationalen
Six
Straftaten
Südkorea
Vertiefung
aufgezeigt
expects
seating
stattfand
##strecke
##yl
Auswertung
Mitteilungen
Sozial
fed
günstiger
weitergehen
##iding
Miguel
binary
burdens
enden
notable
schwarze
##binden
##dre
##rone
##vorhaben
##voy
Jet
Kalifornien
Kürzung
Pixel
beziehe
colourful
demnach
fitting
transparenter
wettbewerbsfähig
##eed
##inheit
##partei
##say
##touren
##è
GMO
Japans
Segment
eindeutigen
memorable
schnellstmöglich
##agt
##riumph
##wendung
##yo
Asset
Package
Rang
Reservierungen
Taking
chips
gaben
lays
ungarische
##bon
##hor
##lessness
##medien
##servatory
Stalin
geradezu
recordings
reflecting
rentals
royal
screens
##FO
Gesundheits
liegende
müßten
nachhaltiges
postponed
scenic
telefonisch
verschieden
überwunden
##asten
##nig
##ulator
##ync
1940
FIFA
Zonen
assumes
cozy
valleys
##Hz
##cha
Kommen
Rindfleisch
WWU
bot
clarified
containers
diente
drastisch
höchstem
mg
oven
realization
rigid
Übernachtungen
##drücken
##gkeiten
##lieren
##rina
##städte
Hunde
Kommissionsmitglied
indicating
nationality
recruitment
submission
verified
##GI
##ahl
##baum
##pressed
Biotechnologie
Drittländer
Renault
Schmidt
Wörter
consciousness
erschwert
mutually
patio
prüft
##ergie
##erver
##paid
Abreise
Beschäftigungspolitik
Bezirk
NT
Senior
Volumen
acute
shipment
veranlasst
üblicherweise
##52
##IL
##ection
##kov
##lour
##smo
##stens
##träglich
1949
Handbuch
Independent
Invasion
Vitorino
deposits
koennen
kombinieren
optimization
pity
swim
traf
zugewiesen
##hilfen
##kontrollen
##rater
##stag
##uppe
BBC
Finger
Wild
entschied
illegally
##gehalt
##srat
Ferrero
Holocaust
Lebensdauer
Stücke
Treffpunkt
forcing
herausragende
##inj
Bashir
Re
SD
SE
Vollendung
Zusage
corrected
informellen
licensing
reichlich
##59
##inate
##ket
ILO
Ruijten
Terme
Vorgänger
Way
confused
entails
irakischen
playground
truck
vague
##ancy
##bringung
##ories
##server
##ächtig
Doctor
Extra
Living
Vertrauens
beziehungsweise
forecast
purchaser
versprechen
##cian
##nlage
##rkt
##swesen
##unta
Available
Campo
Etappe
Fehlern
Jury
Per
Zertifikat
angegriffen
tastefully
wunderbar
##cina
##fly
##phere
##ycle
Andrew
Beamte
Grüne
LIFE
Rats
Tours
harsh
moralischen
peninsula
##gewirkt
##kompetenz
##manager
Resultate
Style
ber
informative
nötige
recommends
thread
timber
##ips
##laus
##rren
##verzeichnis
##zard
Eric
Familienzimmer
Investitionsbank
Nuclear
Schriftsteller
Säulen
Tode
Umweltpolitik
eingetragen
hindern
icons
ordnungsgemäße
pesticides
shaping
verweigern
##TO
##einnahmen
##kungen
##mechanismen
Caucasus
Currency
Geduld
Haushaltsmittel
Nowadays
Pakets
Schnittstellen
Verschiebung
Wäre
Zend
auferlegt
definite
delight
entschuldigen
ernsthaften
likewise
phases
wendet
##iki
650
Elba
Zauber
childhood
deterioration
draußen
finnischen
incoming
snack
##obby
##zent
Stick
Stream
Vorteilen
Zeilen
anonymous
café
dealers
eBay
flower
mangelt
tender
undermining
yacht
##kehren
##lom
##marks
##ção
1958
Bildes
Final
Schlussfolgerung
appellieren
breath
drama
norms
##28
##beck
##ilia
##lassung
##niert
Behinderung
Christopher
Mayor
Personals
Prices
awaiting
empire
judiciary
ville
##klicken
##zzi
Keep
Kontinuität
Maximum
QuarkXPress
bitter
existierenden
gifts
verletzen
warme
##itis
##mination
##tsu
##ürzen
Administrator
Befürworter
TOS
Turnier
Vladimir
behindertenfreundliche
demo
disappointment
geringeren
inability
pending
##01
##IG
##acher
##amos
##klick
##lige
1933
Bestes
Differenzen
Europäern
criticised
kitchenette
kümmert
soviel
submitting
thy
##achten
##ichten
##wörter
Finanzdienstleistungen
Gehen
SLR
Spass
composer
counting
disappointing
gezielte
kurzfristige
##arian
##plantation
##strukturen
Zentrale
extract
freiwilligen
kingdom
monument
unexpected
urged
##aal
##einheiten
##olar
##tellungen
##wandten
Dampfbad
Hospital
Konsultationen
Reihen
biofuels
dramatisch
erfolgreicher
influential
proprietary
на
##ähe
Cairo
Eingliederung
appearing
friendship
geschützten
participant
strategischer
understands
##lösen
##stellte
Kleine
Mund
Sounds
Throughout
abstract
bio
infected
##debatte
##leid
1951
Boston
Customs
Short
Slideshows
appalling
##grenzt
##reserven
Jugendherberge
Nicolas
Veranstalter
anybody
gescheitert
judged
oils
radioactive
travelers
violated
##anwendungen
##eres
##gespielt
##gte
Romagna
außergewöhnlich
benachbarten
gratitude
##aching
##sberg
##schlagen
Feind
Küsten
Lücke
Ratspräsidentin
Verwirrung
bloß
connects
console
democratisation
merit
unverzichtbar
verspricht
##backs
##cree
##fuhr
##kop
AD
Cuban
Kenya
Rabatt
Zuhause
auslösen
restoring
##eh
##ilung
##ltration
##teria
Gaulle
Göteborg
Mitgliedsländern
Schuhe
hits
optimistic
pet
remark
veränderte
##bilanz
##geteilt
##kaufen
##oß
Mexican
Sebastian
accessing
discriminatory
font
inserted
stimulating
##23
##ear
##uting
##wandeln
Sustainable
additives
smell
übersetzen
##zuhören
Aussprachen
Boote
attraktiv
opposing
sinnvolle
tastes
##hnlich
##sichern
##tica
##zuschreiben
Bungalows
Figur
Lloyd
anhaltenden
construct
intermediate
kW
shell
translators
zufällig
##gesetzgebung
##lken
Nine
Ortschaft
Wohn
ai
ethischen
Österreichs
##ature
##erlich
Companies
Freiburg
Promotion
Szenario
finger
schwachen
therapeutic
##27
##bogen
##ited
##omed
##ème
##önen
Anlaß
Internetanschluss
Muss
Servern
Strukturreformen
adapting
authoritarian
enthusiasts
grundsätzliche
internally
suicide
zitiere
zunehmen
##TI
##diensten
##iew
##samkeit
##zumachen
ECOFIN
Einreise
Mahlzeiten
Rückzug
Speicherung
cafes
contamination
expresses
nachzukommen
prizes
sick
##ansprüche
##ede
##ency
##uter
##valent
##xon
Chair
Films
String
Substanz
nous
seid
streichen
##PI
##SD
##ivieren
##reinigung
Dominion
Kunststoff
Liberties
Session
Vizepräsidentin
appropriately
assisted
conceived
fauna
flexibler
irresponsible
manages
neighborhood
##LC
##berechtigten
##fektion
##icher
##ringt
Cards
Rasse
alert
civilisation
infection
mediterranen
unabdingbar
zugenommen
##79
##bewusstsein
##gangen
##gesetze
##lviert
##mulator
##sräume
##wall
Demonstrationen
Einträge
González
ICEcat
Rechtsetzung
Various
approaching
eröffnete
jüdischen
namentlich
sexy
##TER
##beteiligung
##isst
##lder
##nus
##ständig
##swerten
##tieg
Adria
Briten
Finden
Verschmutzung
Vertreterin
beta
dringende
engineer
geänderten
laufende
slot
traces
traveling
unabhängiger
##CM
##ough
##tling
Grundstück
elektronischer
ermordet
geleistete
gladly
identifiziert
##pse
##ross
##ston
Accordingly
Alba
Maritime
Mauern
Trainer
donations
herzlichen
scenarios
unterzogen
##arium
##kräften
Baum
Erfordernisse
Fluggesellschaft
betrug
claiming
comprising
unterworfen
##NP
##air
##eld
##lässig
##nding
##sprachen
1918
Allen
Freihandelsabkommen
ausgeweitet
disability
ineffective
ma
sentences
zumeist
##aw
##fler
##hos
##num
##ony
##sisch
Einwanderungspolitik
alla
anhaltende
komplexer
massiv
nett
straightforward
subway
##37
##due
##porte
##tible
Race
Yahoo
fashionable
locals
mature
seller
umliegenden
zuzustimmen
##nige
##rik
##rms
##svorschlag
##urg
280
Andernfalls
Mitchell
Proteste
Spenden
Stationen
Underground
Werner
beides
beschriebenen
bomb
hub
supposedly
theater
##bezogenen
##hlt
##lug
##pft
##sert
##tom
##uern
1959
Arzneimitteln
Aviation
Did
Expo
Flucht
Pferde
Schaltfläche
Twin
Waldner
emails
hebt
illegaler
kreativen
##ances
##aucher
##dly
##gesagt
##misch
##tigen
Abbas
Highlights
Lehne
einseitig
geografischen
harmonise
mußte
seeds
##aja
##iode
##mma
##mper
##oys
Niederlage
anführen
climb
confined
fairs
gekürzt
idyllic
##29
##IE
##UE
##aks
##ibt
##oria
##sgesellschaften
##using
##å
Already
Kinderbetreuung
Nutzungsbedingungen
Reception
rooted
schlug
unclear
werdet
zügig
##ffice
##pas
##theater
Challenge
Matthias
auszuarbeiten
columns
dokumentiert
encouragement
fiction
retreat
uphold
weaker
##hat
##hesive
##massage
##piele
##seitigen
Blu
Nationale
charging
fügen
innovativer
nette
singing
weaken
##immt
##oes
##sammlung
##wendungen
##yber
Banquet
Christoph
Countries
Ehe
Mehrzahl
Nephi
Publishing
Schichten
Terrassen
Wellen
annimmt
benachteiligten
chapters
coloured
manipulation
mixing
vertrete
##dien
##hälter
##reator
Athen
Bath
Einzelpersonen
Lob
Neuen
adhere
distortion
erhöhten
showers
##geleitet
##getan
##rique
Barón
JPEG
enthusiastic
entzieht
multilingual
##BB
##ischem
##lling
##sgesellschaft
##zität
2030
Amazon
Morgan
befaßt
bewährten
kurzfristigen
portugiesische
##aya
##kit
##ogy
##prozesses
11th
Assoziierungsabkommen
Bezüglich
Container
García
Mittelalter
Muslime
Obergrenze
applicants
commodities
crowd
fertigen
nuklearen
vorübergehend
##UB
##ichwort
##ipe
1947
Edit
Kette
Making
Maßstäbe
Voice
aufrichtig
beginners
brachten
calculations
ehe
hilfsbereit
sacrifice
unnötig
##LD
##acle
##bestände
##gelder
##itiv
##lore
##lue
##pan
##го
Bäume
Meldung
None
Vorgänge
footing
servants
transposition
wholeheartedly
##kan
##reformen
##rg
##sbedarf
##statten
##wanderung
##zwecke
Haag
Lieder
Roboter
Stehende
Ultra
Versuchen
handy
monopolies
professionalism
refuge
##eri
##punkten
##schub
Anschein
Gleichberechtigung
Kollektion
Louvre
Pferd
Virgin
ausgegangen
craft
einzuräumen
exert
med
pubs
tournaments
yours
##pic
##tellt
##tia
INI
Table
Vernichtung
dramatischen
drew
eingeschlossen
exhibitors
feinen
zuversichtlich
##asty
##cur
##itat
##umgebung
##у
Fontaine
Vortrag
abortion
awaits
offline
optimize
romantischen
steady
##iably
##oper
Airconditioning
Tuscan
einsehen
nachhaltiger
repräsentiert
resume
trucks
zugeben
##run
4000
Amsterdamer
Care
Democrat
Fitnessraum
LA
Players
Stone
Wohnsitz
concluding
entstehenden
vorab
##vre
Map
Thematik
celebrations
emphasises
erbracht
jenes
onwards
smoothly
storm
synthetic
##Net
##miniert
##sausschuß
##ugar
##verfolgung
Aktionsprogramm
Automation
Oscar
Pocket
Verfassungsvertrag
flags
slave
##gical
##rous
##saal
##welle
##wirt
##works
##än
##ütze
Einstimmigkeit
Pen
bat
cellar
demonstrieren
eingesetzten
lady
leverage
seasons
verschwunden
zusammengearbeitet
##auern
##flich
##geln
##secutor
##sight
##ündigen
Auschecken
Billionen
DS
Konzerne
Mannheim
Organismen
Pensionen
Sarah
Williams
appealing
auszuschließen
beschädigt
bisweilen
cosmetic
dynamics
poorly
##gement
##ij
##rafen
##wiesen
1960s
Aufenthalts
Böge
Informationsaustausch
Movie
Syrian
accelerate
bestimmtes
einmaligen
elektrische
predecessor
##adresse
##cession
##gängen
##hops
##lasse
##papier
##pielen
##sumption
##äfte
Aktionäre
Ambitionen
Büchern
Freundschaft
MIT
Nordamerika
Nürnberg
Termini
brothers
indicator
populated
requesting
schalten
stattfindenden
strip
strukturelle
weitergeleitet
##away
##state
##ör
Computers
Racing
cocktails
disparities
doppelte
pin
probieren
regulators
suspend
zugeschnitten
##chaften
##fabrik
##gau
##kat
##sser
##tus
##ähle
##ätte
Born
Demonstration
Pause
Swimming
beeindruckt
condemnation
ecommerce
inspiriert
lengthy
lying
murdered
niederländische
nutrition
##FL
##ario
##cating
##gal
##likationen
##mechanismus
##nomische
##rogen
1929
Einzel
Ressource
Tschechische
archaeological
esta
remembered
transportiert
verdeutlicht
##bauer
##ficiency
##lieferungen
Nevada
beliebte
eingebettet
geehrten
genügen
guys
hydraulic
reformed
töten
virtue
##eigen
##quer
Automotive
Gedächtnis
Ortes
Pay
Perfect
anerkannte
pot
rote
verstößt
##TF
##büros
##ids
##jan
##tives
Fassade
Lago
Motors
Paragraph
Pedro
bass
einleiten
pumps
##dere
##pping
##vio
Auffassungen
Daß
Verantwortlichkeit
beträchtlich
dying
unzähligen
##anzeige
##tical
Abwesenheit
Kyi
Meldungen
hinten
methodology
somebody
##ased
##ekt
##imise
##ivo
##ondo
##ämie
Belange
Einsatzes
Kritiker
Suu
Träger
Verschiedene
attributed
biking
redundant
Öffentliche
##halter
##ißen
##nant
##willigen
Handelsabkommen
Maustaste
Roger
Scanner
Servers
Submitted
anerkennt
og
outcomes
outlook
seiten
wealthy
##blichen
Erscheinung
Getreide
Outdoor
Province
Siedlung
Siedlungen
Verlagerung
Verweis
Whenever
ausfallen
destructive
dimensional
nominated
warned
##icle
##ilität
##lasen
##ples
##siedlung
##zeigt
Friends
Gemeinschaftsrechts
SIE
Schokolade
Titan
balconies
einladen
jeher
plastics
repressive
reproductive
##gue
##kunde
##lating
##orientierte
90er
Crespo
Hyde
Luftfahrt
MHz
Mord
Schande
True
Verdacht
angesiedelt
petition
soziales
strings
wohin
##Guide
##schritt
Bahrain
Ca
Wettbewerbspolitik
allgemeinem
angemeldet
coupled
desires
heiligen
relatives
threatens
##kanischen
Adapter
Geheimnis
Gremium
Novotel
Orchester
administrations
blauen
gesundheitlichen
xenophobia
##sern
112
Arbeits
Einstieg
LONDON
Rettung
eingetreten
expressions
gewohnt
nachgewiesen
th
zivile
##DER
##chter
##energie
##rome
##torische
Basque
Brunnen
Customers
Entwicklungsziele
Juncker
Paulo
Philippe
Track
angenommene
ceilings
deprived
klingt
multiannual
salaries
##drucken
##galerie
##gern
##lift
##sfrist
24th
Besondere
Edward
Konten
Vorjahr
administrativen
brochure
marina
undermined
##waffen
##zucht
##ßig
Johnson
Military
beverages
circles
prosperous
##haftigkeit
##rdoba
Anzahlung
Fourthly
Zeichnungen
bewaffneten
cleaned
jährigen
seal
supplying
##abstimmung
##aucht
##bettzimmer
##gerechte
##lach
##tax
Auflage
Bürgerkrieg
Grün
Horn
Mandriva
Ozean
Schwarz
blockieren
reichhaltiges
subsidy
unite
weiße
##83
##MT
##minating
##schluss
190
Aids
Bavarian
Verbraucherpolitik
Wikipedia
ausdrückliche
ethics
exemplary
horny
publicity
##84
##anke
##uhr
Ecuador
Indiens
Modells
Rechenschaft
Si
bestmögliche
bisherige
cap
fifty
interfere
Überraschung
##bindung
##freundlich
##tums
Bob
GASP
Kremlin
Login
consultancy
continents
dont
elect
ersucht
intensiver
learnt
maximalen
sus
zurückgreifen
##agenturen
##bet
##etzt
##helfen
##icing
##ländischen
##mans
##ood
##orientierten
##sfragen
Ansatzes
Create
Heathrow
Kämpfe
Laufenden
Veröffentlichungen
conception
creatures
deregulation
dozens
fusion
verzichtet
##iens
##liegende
##maß
Bauer
Herman
Leon
Others
caution
corrupt
letting
natürlicher
readily
surveys
vergrößern
weekends
##bilisierung
##handeln
##plication
##sfall
##werden
Banner
Eigentlich
casting
dancing
depression
insecurity
inventory
loose
pupils
ratings
widersprechen
##gäste
##posing
Delors
DivX
Geltung
Gütern
Produktpalette
ankommen
determines
hierher
stilvolle
##bungen
##erzeugnisse
##flucht
##iehen
##irm
##promenade
##sentwurf
##sl
Brenner
Eiffel
Lower
Lücken
Palermo
Tester
abhalten
benötigte
castles
mitunter
twentieth
underway
vertraulich
vorzustellen
zukommt
##chnologie
##mauern
##rait
##transport
Bangemann
Finanzrahmen
Parc
Send
Slovenian
ausmacht
basierte
benefited
cycles
grows
höchstens
minors
parish
verbleibenden
##ausbildung
##gefüllt
##melden
##nachfrage
##szeitraum
137
Chapter
Dinner
Pressefreiheit
Skandal
Toulouse
Universum
Wortes
attributes
contradictory
employer
highlighting
lucky
pressed
touched
##vies
##vorschläge
##ärer
Better
Harris
Rahmenrichtlinie
beliebig
chambre
champion
englisch
explanatory
investigated
investor
politician
raschen
##agung
##uid
##unistische
##xy
##ön
1800
1955
Etwas
Motivation
Präzision
bizarre
enjoyment
großzügige
odds
render
templates
towers
##chulden
##gels
##real
##sgeschichte
##ulations
Birmingham
Champion
Emotionen
Gaming
Karlsruhe
Kopien
Overall
Präsidentschaftswahlen
Senate
Stable
hybrid
lit
malaria
qu
schlafen
schwerwiegende
sectoral
unwahrscheinlich
warmth
##dation
##iesen
##kampagne
##packen
Atomwaffen
Außer
Gehör
HI
Handelspolitik
Host
Kelly
Menschenleben
Stille
Zeugen
collectively
gestrigen
getrennte
professor
protocols
vorgelegte
##arily
##ickel
##used
Einfuhr
Fire
Fünf
Javascript
KUKA
Talent
dare
eingehend
exklusiv
filed
incl
inhaltlich
tends
vergangen
yea
##auswahl
##fähige
##führenden
##gier
##tändig
##α
##т
Aussteller
Brava
Francis
Informatik
Schrift
Speichern
favoured
gerät
logos
##KO
##OX
##nial
##ruppe
##sinn
##übergreifende
1941
Audit
Fortschritten
Impuls
Neapel
Perl
Sa
Umwandlung
bets
ehemaliger
nowhere
prevailing
swift
##ivities
##ktiert
##mine
##nisse
##rdin
Buchten
Freundlichkeit
Herunterladen
Rauchen
Sicher
Urlauber
Weltmarkt
andernfalls
combinations
conditional
historically
honey
mentioning
verabschiedeten
##RY
##nger
##stuhl
##unst
##ädigen
Ausschluss
Tiger
aufgetreten
engere
oberhalb
prostitution
refusing
tragischen
verschlechtert
##brecher
##regulierung
##shing
##sleistungen
AM
Firewall
Menüs
Pope
Ubuntu
Urban
bequemen
comitology
jury
sono
transferring
##thing
Cambodia
Footprint
Immo
Wählern
altered
erstklassigen
gerechten
obligatory
vernichtet
##CI
##bian
##bunden
##eding
##lick
##vian
##wung
Grenzwerte
Money
Pilot
Rail
atemberaubenden
billiger
county
dress
fleets
geringere
offences
positioning
professionell
statistischen
##omic
##paper
##ulär
##zeile
##ть
Figuren
Industrien
Ohren
breakthrough
draftsman
einschränken
feeding
hereby
spezielles
vielerlei
##fizierten
##ried
##tec
A320
Animation
DB
Evolution
Hinter
Hund
Jersey
Mitarbeit
Number
Produkts
assuming
exceeds
explizit
imply
künstlerische
prejudice
recipe
sharply
strengths
switching
##afe
##chieben
##nish
##ports
##rdi
##sidencies
##sions
##spiegel
##ähne
Davos
Oh
Return
jedermann
locked
moratorium
thirdly
zwingt
##cting
##gnet
##licherweise
Bananen
Cafe
Flugzeugen
Nahrungsmitteln
Napoleon
Vorzüge
electorate
interpret
rechte
risen
rows
writes
##elte
##fangen
##igende
##loch
##oft
##uppen
##ührt
Geltungsbereich
Mobiltelefon
Stornierungen
Wahlkreis
gay
harmonious
incompatible
obersten
##BI
##lau
##mium
Abfall
Archive
Football
Lied
Side
abolish
detaillierten
disorders
domains
geltende
konstruktiv
lectures
slope
##ikanischen
##witz
Anforderung
DSLR
HR
Mitgliedstaats
Wissenschaftlern
realm
übergehen
##DEN
##EO
##KE
##ados
##chor
##grafie
##oa
##szeiten
##von
Flagge
Imaging
Intelligenz
Schröder
merits
neuem
preview
traders
vorantreiben
##EM
##arma
##betrieben
##cam
##jer
##umes
Collins
Forschungen
Getränken
Grill
Haartrockner
ausdrücken
betrachte
cat
dreißig
insisted
sacred
##agle
##anto
##atischen
##isen
##nell
##uhl
##uise
175
Shell
copied
opponent
spürbar
todo
##chalten
##fin
##verbände
##überwachung
Londoner
govern
knnen
loyalty
petrol
volunteers
108
1980er
Boeing
Bosch
Rehn
demzufolge
exzellenten
gängigen
hatred
invented
manuell
stipulated
##KK
##nähe
##odus
##spezifische
1952
F1
Klang
Leistungsverhältnis
Sozialfonds
Uruguay
geopolitical
hinnehmbar
interviews
nicely
zertifiziert
##lene
##ncia
##pies
##sman
##tting
François
Träume
Ulrich
darzustellen
eleven
empfehlenswert
findest
rounds
sat
##geschäfte
##ibe
##lange
##nelle
80er
Expansion
Innen
Remember
beliefs
boutiques
laufend
stopping
strategisch
##rst
Aktionsplans
Besten
Kevin
Kreuz
Layer
Summen
aktiver
besetzten
remit
##53
##NO
##lified
##queren
##sleben
##srahmen
##uru
Bach
Dollars
Paare
Stoff
aufgreifen
cooperating
differing
patented
pixels
swiftly
##IVE
##ached
##kunft
##skette
##wo
Barbara
Neuerungen
Run
betting
eingestuft
happiness
mainstream
rejecting
wellbeing
##CES
##alle
##gebung
##ital
##lad
##tut
##üne
cruise
funktionierenden
militärischer
salary
studieren
##ehlt
##einkommen
##krebs
##nny
Ages
Buchen
CFSP
Chávez
Computern
Economics
Einverständnis
Instituts
Luxury
Olivenöl
Regen
Wiedergabe
absent
brechen
gründliche
odd
##ags
##check
##furt
##lub
##puis
##vermögen
Ericsson
Etwa
Fashion
Fremdenfeindlichkeit
Italienisch
Prognosen
Prozentsatz
Tschechien
arisen
besserer
doppelten
embrace
extraction
jacuzzi
nationales
##cally
##gegriffen
##licon
##stieg
##städten
##usion
320
Easter
Electric
Elisabeth
Inhalts
Rathaus
ambiance
ausreichenden
explaining
massages
ml
rebuild
##UP
##artikel
##cel
##gesehen
##ohn
##smechanismen
##sziele
##verein
##weine
##ässigen
Khan
Religionsfreiheit
Vernunft
exportiert
patience
predict
struggling
weakened
##artment
##geworfen
##infrastruktur
##leger
##mester
##в
Berufung
Electronics
Fuerteventura
Fujifilm
Julian
Notre
bürgerlichen
contracting
sunshine
transparenten
Änderungsvorschläge
Ängste
##hauptstadt
##lable
##traße
Albanian
Buchungen
Glücklicherweise
Haushaltslinie
Qualifikation
Recent
begünstigt
entstandenen
geistige
institutes
legs
musst
sinken
verbreitete
##cional
##clusive
##derung
##nberg
##svolle
##zählung
Admiral
Frühstücksraum
Furcht
Jürgen
Propaganda
Regions
basin
cookie
extensions
frankly
loads
rolled
widerspricht
##ocratic
Harvard
Streifen
Vancouver
debut
erlangt
legend
lifted
publisher
realisation
wöchentlich
zubereitet
##sbestätigung
##themen
##tration
Alternatively
Anstrengung
Ivoire
Piano
Pol
accomodation
anstehenden
buyers
catastrophe
corners
diplomatische
trug
überflüssig
##einheit
##ences
##lisch
##lisierung
##messen
##öcke
##ündet
135
8th
Ambassador
Besonderheit
Internets
Nazis
Shows
Venetian
Ziffern
curious
exercised
kleinste
sog
stehe
##100
##LM
##lig
##nheit
##rände
##sverfahrens
1946
Bürgermeister
DNS
Immobilie
Produktionen
Sieger
Wide
begeistern
consuming
grapes
neighbors
palm
sponsored
sq
zurückzukehren
##bestimmung
##passen
##sinstrument
##vier
##vings
##ühl
BugTraq
Byrne
Dossier
Fallout
Haushaltsausschuss
Navy
durable
excessively
exterior
suspected
##WE
##aba
##aciones
##arate
##bine
##heid
##pflege
##rahlen
##tered
Erwähnung
Heutzutage
Jagd
abzubauen
außenpolitischen
mächtigen
tat
triggered
##ass
##ista
##schöpfen
##smechanismus
##sprachigen
##zuwenden
2D
ARE
Großbritanniens
Grundsatzes
MSN
Monster
Probe
Sauberkeit
Seien
Wiederbelebung
englischer
entirety
herausgegeben
traditioneller
Überdies
##OT
##befugnisse
##einhalb
##lik
##wed
##ändigen
ASPs
Au
B6
Beihilfe
Drink
Majorca
Spezialist
casinos
debattieren
discovering
hath
peer
pocket
tasting
ähnliches
##auschen
##kapazitäten
Boulevard
Vinci
Zivilbevölkerung
bloße
freigegeben
herausgestellt
komplizierte
outbreak
premature
unchanged
##akte
##beiträge
##ündigt
Angebots
Programmierung
ordentlich
sons
suspicion
verhängt
##ausgabe
##information
##non
##rede
##stes
##örungen
##öten
Bundesregierung
Gordon
Joe
Unterbrechung
bestehender
fragte
hervorragender
touches
##aling
##gezeichnet
##hore
##jour
1954
Einmal
Leinen
Luz
Salzburger
Yacht
dedication
fathers
polite
sail
steadily
##aufwand
##iar
##klausel
##matic
##ädigung
Arbeitsprogramm
Ausgehend
Beitrittsländer
Engagements
Ironing
Objekten
PNR
Rechnungshofs
Tenerife
Var
bananas
identisch
om
volcanic
##enburg
##komponenten
##lium
##mento
##rayed
##reet
##reut
Frontera
Luc
bewährte
ceramic
floating
frühzeitig
hochwertiger
marvellous
transmit
##dles
##gerichtet
##gespräche
##hebt
##ohr
##regelungen
##seitige
Apartamentos
Governments
Parallel
Republican
Tendenzen
Wogau
erstaunlich
nachts
niemanden
weitergeben
##ener
##folgt
##rf
Groups
OEM
Unruhen
Verantwortlichkeiten
bedacht
episodes
kollektiven
lauten
reads
##bile
##lor
##optionen
##rack
##raums
##ützer
Burundi
Durchmesser
Gassen
Silber
advocated
etablieren
glaubwürdig
verhält
veto
##hundert
##lam
##ographie
##racy
##rilling
##unen
1919
Often
Tax
aufgeworfen
großzügigen
imprisoned
lebte
senses
simplicity
warn
zuteil
zögern
##ams
##farbe
Luftverkehr
Megapixel
Präsentationen
Relais
Ruinen
cluster
invention
nationalist
pipe
suggesting
versteckt
##morandum
##rado
##rnen
##terie
##under
Brandenburg
CAMBRIDGE
Einkauf
Entsprechend
Fabrik
GUI
Solidaritätsfonds
Verhütung
deliberate
dependency
desperate
dreht
erneuert
radikale
##gefahren
##inux
##pfeiler
##platte
Dokuments
Francesco
Medikamenten
Möglicherweise
Urheberrecht
besonderem
erfahrene
gedrängt
hielten
incorporating
loyal
rücken
überraschen
##MO
##ebt
##epper
##scape
Betonung
Bordeaux
Pisten
Wanderung
Works
aren
calculate
dementsprechend
hieß
zurückgezogen
##ilde
##rve
##tausende
AGB
Alex
Brücken
Engel
Führungsrolle
Herangehensweise
Never
Normalerweise
Spalte
Vorbeugung
distortions
owe
recourse
refrain
terminals
être
##disciplinary
##räumt
##weist
ALL
ZF
counterparts
neglected
reunification
verhelfen
##HR
##körper
##schulen
##tility
##weilen
##wohner
104
Daran
Entschuldigung
Handelns
Hilfsmittel
Mobilisierung
Vergütung
auszuweiten
browse
celebrating
copying
earmarked
fantastische
habits
heaven
lesser
qualifizierter
successive
unvergessliche
wuchs
##anger
##haushalt
##held
##nti
##sachen
Fischereisektor
Handtücher
Sicherheitsrates
VOY
besprechen
eingebrachten
halb
hervorgeht
loop
pluralism
qualify
##ects
##firma
##ior
##reicht
##ächtigung
##ö
Mitgefühl
Nicaragua
entfallen
professions
receiver
runden
unterrichten
vorgebracht
ya
##ichnet
##iti
##oure
##reiten
##rite
##wachs
Adjustment
Ermessen
Konzerns
Rating
Solution
banning
communicated
explosion
irgendeinem
midnight
pitch
populist
sadly
stuck
welding
##dizes
##gua
##ivating
##motoren
##pulsion
102
Fischbestände
Nuendo
Terrorismusbekämpfung
analyze
disturbing
exhaust
fantastischen
festlegt
helicopter
intern
multinationals
recognising
vorankommen
worüber
##atisch
##chsen
##grad
##izier
##kischen
##lase
##wirft
##zeilen
1938
Gare
Hügeln
Laos
NGO
PM
Rechtsvorschrift
Vigo
Völkerrecht
reconcile
ser
##bevölkerung
##tent
Aid
Bedauerlicherweise
Brothers
Circle
Handelsbeziehungen
Klinik
Reserven
Wallis
browsing
exporting
horizon
pero
thickness
##angehörigen
##bot
##dler
##äure
Added
Brian
Davis
Ungleichgewichte
fürchten
glance
höre
insofar
interiors
mentions
operativen
petit
recipes
religions
spannende
specialties
starship
systematische
valued
##aculty
##blicken
##gies
##ntine
##reibung
##sbildung
##svorschläge
##til
##unition
Join
Nationalstaaten
Serien
geforderten
sozialistischen
unklar
ökologisch
##ausstellung
##dacht
##gle
##quis
##reife
##schalten
Anbietern
Commercial
Georgian
Laptop
Routen
Wachstumspakt
gültige
hitherto
metre
overlook
verursachte
##cen
##chtliche
##elen
##holder
##lasten
Schwellenländer
Trans
complain
conf
courageous
engaging
gefeiert
isoliert
schwächen
sportlichen
theatres
traceability
##KT
##geschnitten
##gezahlt
##illon
##lde
##parks
##uh
##uläre
Angel
Europarat
Fluggäste
Ray
Reading
Settings
angegangen
diesbezügliche
evaluating
kopiert
lokal
mas
performs
reforming
versenden
wirtschaftliches
wusste
##ieur
##onda
##vorsorge
##äge
Bügelservice
Importe
Julius
Massagen
Pre
ausgedehnt
evolved
neck
rough
wesentliches
zugesagt
##dra
##ferenz
##läufige
##pez
##quently
##ägliche
Arm
Beiträgen
Construction
Friedhof
Iron
Protest
Surely
USE
Wieder
Zoom
caves
elevator
reinforcing
simplifying
spezieller
tolerate
##institute
##regen
Chalet
Gebirge
Putins
Setup
Weinen
authorization
konfiguriert
neighbour
potenziell
sentenced
zuverlässigen
##aturen
##bigkeit
##elor
##oto
##rau
Sprecher
VON
Visum
abgebaut
ausschließen
bedeutend
forefront
margins
##dert
##gischen
##holders
##iertes
##inien
##ollen
##wogen
ABAP
Beschaffung
Erfindung
Fox
Generaldirektion
Hostal
Safari
Salzkammergut
Tirol
Train
Wetten
abzuschaffen
completeness
correctness
declining
definierten
lamps
##56
##graben
##ici
##indlichen
Andorra
Beitritts
Bibione
Finale
Strafgerichtshof
assistant
einheitliches
hellen
interpretiert
komplex
postpone
##andt
##dul
##modelle
##than
##zeuger
##äck
Beschlusses
Rohstoffen
confrontation
dortigen
geographic
immune
kindly
substantive
targeting
##HL
##ades
##cat
##ector
##kal
##nsus
##phones
2016
Feinde
Payment
Religionen
Sicherlich
cake
cereals
drehen
entail
implementiert
millennium
recital
spätere
##acon
##formular
##lap
##lett
##marken
##olge
##quoten
##uber
Aung
Ensemble
Meetings
Technische
canal
cloning
dicht
harmonization
jährige
konstitutionelle
parliamentarians
##Ps
##ikanische
##quin
##teuert
1953
Coffee
Daily
Erfordernissen
Sub
agreeing
editorial
erkläre
fruitful
injuries
missile
reformieren
shirt
##benen
##pect
##ske
##track
##yper
##ünen
BG
Kreditkarten
Malmström
Off
Panama
Papst
Student
begründen
criticise
derivatives
entgehen
illustrate
mysql
privatisation
terroristischen
unification
verdeutlichen
##ipen
##itären
##liziert
##scription
##stehend
Automatic
Betrachtung
Bonino
Bug
Vergessen
Verhandlung
Versicherungen
ausländischer
körperliche
premier
proactive
winds
##eus
##icism
##pflichten
##pischen
##wertige
##zliche
Audi
Muttersprache
Tastatur
Wagner
assign
cooked
geschlagen
scheitern
unlängst
zunichte
##ichtet
##ità
##open
9th
Blogs
Girls
Movement
Westeuropa
angestrebt
ausreicht
colony
discourse
kleinsten
mainland
surf
##aufnahmen
##grenzung
##heizung
##lyn
##minate
##person
##pots
##ubern
Bedürfnis
Micro
attendance
duplicate
geographischen
nominal
paradox
similarly
touristische
##bies
##geschickt
##nity
##shalle
##äter
BGB
Streichung
Tropez
adjustable
argumentieren
circa
hike
promotions
prosecution
zip
##arbeitet
##lismus
##sposition
##technologien
Episode
Läden
Madonna
Mulder
Neighbourhood
Starten
Terre
auftritt
auszuwählen
behave
beherrschen
employs
informing
vos
##WF
##gramm
##richt
##uieren
##zulösen
365
Begegnung
Differenz
Politikbereiche
Statement
Teilung
bedenkt
keywords
reminds
schädlichen
##erlegen
##gma
##ltigung
##sdienste
Disziplin
Ingenieure
Preisstabilität
Sorten
Vaters
breakdown
eintritt
erstaunt
gestützt
leer
mill
packing
verbracht
##Station
##gedacht
##geordnete
##mare
##rol
##sverkehr
Beschwerde
Elizabeth
Obgleich
gesund
gesunken
konfigurieren
nets
radically
sendet
steering
wem
##emissionen
##ifiziert
##kins
##kopf
##smitteln
##sst
##start
##vid
##äen
A380
Applications
GO
Rechtfertigung
anticipate
edges
insulation
milestone
möglicher
nahen
objection
plasma
##HC
##brüche
##liebhaber
##minieren
##oker
##orgen
##oter
EA
Janeiro
Recycling
Weisheit
Wirkungen
breaches
holy
judgments
##edia
##ktuellen
##mation
##ndi
##nical
##onisch
##turing
Bangladesh
Gewissen
Het
Jonathan
Marathon
Senden
appliances
realistische
slogan
territoriale
zentrales
##anken
##dom
##hnliche
##ii
##matische
##onie
##stimme
Ausbreitung
Schiene
Task
Transaktion
gefüllt
maker
##bleiben
##gericht
##rechtlich
##situationen
1937
Dance
Einsicht
Fifth
NO
Spur
Woody
bubble
converter
erneute
supermarket
tschechische
##gefügt
##got
##kauf
##komplex
##rash
##ssystemen
Anhebung
Beleuchtung
Dachterrasse
Flüsse
Halbjahr
Hamburger
Motive
Steine
Toronto
Wüste
Zeitschriften
aan
fairness
gesteuert
##basierte
##hmung
##rischer
Fuerte
Leder
Vernetzung
Vervielfältigung
albums
constituents
frontiers
strengthens
##demokratische
##fare
##gefordert
##richter
##uzzle
Books
Dorfes
Ethiopia
Generalversammlung
Letzte
SWIFT
Sensor
Votum
XLSTAT
adventures
frontier
mayor
mercury
mortgage
##signed
##´t
CA
Concerning
Köstlichkeiten
Schattenberichterstattern
Weder
aufzugeben
schwache
vollzogen
##ael
##ead
##eal
##greifende
##sführer
##spreis
##tale
##words
##äufe
Anreisedatum
Conservative
Sicherheitsmaßnahmen
assignment
erfreulich
fatal
globales
mobilisieren
ratifizieren
tollen
venues
##fristig
##keln
##stärke
##tures
DG
Formula
Lucas
Propheten
Russischen
Sich
Treibhausgasemissionen
inspectors
occupational
optimism
recovered
teils
thematic
##duce
##fried
##obil
##senkungen
##sstand
##torischen
##uo
##urer
Factory
Fahrplan
Groß
IND
Identifizierung
Meinungsverschiedenheiten
Sicherheitsstandards
Sitze
Too
angeregt
associate
diversification
fürs
hofft
modernste
privately
##ables
##after
##bigen
##ensive
##mittag
Demonstranten
Einkaufszentrum
Rue
Schwierigkeit
anzusprechen
dev
photograph
##aga
##long
##luft
##potenzial
##utschen
Berechnungen
Defense
RAW
Tags
Zugriffe
brake
organisational
photographers
thrust
zugeordnet
zweifelsohne
##haber
##iver
##schläge
##tl
##uala
##unes
256
Blues
Horde
Turbo
basket
boosting
declined
forty
französischer
particles
tap
##hler
##ssteuer
##unds
Calle
Feature
Massenvernichtungswaffen
Moral
Niederlassungen
Professionalität
Rechnungen
Sekunde
assortment
beam
clearing
disorder
poetry
shipped
strain
unnötige
##bund
##dine
##lain
##lusive
##sbestimmungen
##sprung
##tering
Arabic
Costasur
Gastgeber
María
Neuseeland
Nova
Variable
Weiß
athletes
ausführlichen
begriffen
charts
fortfahren
illustrated
incapable
monitors
spirits
traded
ungewöhnlich
warnings
##ESS
##gewertet
##here
##ließen
##mmnisse
##oline
##politischer
##sparen
##sto
##stufen
##unker
##vise
Dein
Glasgow
Lebensstandard
Legislative
Westens
Willens
bottles
conformity
detrimental
impacts
intact
interinstitutionellen
seventh
##kenntnis
##rasse
##ränke
##sley
##ualität
##unterricht
##urated
##utical
##wissenschaft
1917
Diversifizierung
Festland
Hauptsitz
Sam
Szenen
anger
crossed
displaying
encrypted
farmer
gestellte
gesture
smile
variant
##58
##arity
##hagen
##quel
##reuung
##zar
##üßen
Bündnis
Ermittlung
angegebene
faktisch
punished
weichen
##Pad
##bauern
##iental
##ieter
##nminbi
##regende
##rgo
##saustausch
##üll
Deregulierung
Elysées
Panoramablick
aufkommen
compression
erneuten
profitability
seemingly
tausende
##erfolg
##gina
##lts
##ogen
##rose
##rot
116
Einkaufsmöglichkeiten
Geschlecht
Herzog
Sheraton
Verpackungen
biegen
defeated
nannte
precarious
provinces
separaten
zuzulassen
##cas
##fold
##idi
##ktoren
##strecken
##uto
##vien
Alte
Anton
Außenbeziehungen
Grundsätzlich
Interesses
Lausanne
Riker
Rothley
Turn
cafe
consumed
dictionary
dismantling
durchschnittlichen
iTunes
jüngster
wählt
##VP
##ehe
##oses
##perren
##wies
##übergreifenden
Besichtigung
Burning
Chip
DOS
Diego
Directorate
Fachwissen
Geber
Kuchen
Langen
aforementioned
arme
cautious
describing
interoperability
menschlicher
prints
underlined
##eak
##fertigt
##hängig
##materialien
##otive
##uest
Amnesty
Besuche
Blanca
Blatt
Foucault
Highlight
Infolgedessen
cached
eingegangenen
einzubringen
exercising
folgten
prisons
reign
rendered
spheres
username
##beschränkungen
##bilität
##ckung
##mony
##schauen
##tiere
AT
Belgrade
Beschlüssen
Cocktails
Conciliation
Eingreifen
Generally
Goethe
Konzepts
Moon
Phoenix
Reduktion
Story
Tyrolean
advertisements
anxiety
captain
deepening
pipes
streams
tubes
umzugehen
vernichten
##ander
##ather
##ider
##max
##ostet
##š
Barrot
Beschreibungen
Bruno
Cap
Hoheitsgebiet
Ljubljana
Menschlichkeit
Miami
Rednern
Reports
Value
arabische
bewährt
disarmament
erwarteten
harvest
upgrading
violate
zeugt
##ektor
##gehende
##ifiable
##smen
##stall
##sters
Greater
Jahresende
Suchmaschinen
Verwaltungen
Wassers
aufzustellen
drastic
gespannt
iranische
photographic
prima
shoe
##ENT
##afting
##feln
##iary
##küche
##olen
##ounds
##schieben
##srunde
Akteur
Nielson
Norwegian
Options
Regulations
abide
allocate
entfalten
hanging
hervorgerufen
inquiries
laboratories
laundering
observer
prinzipiell
remuneration
rush
wen
worries
##eb
##idung
##oos
##ständige
##werbung
Demand
Genugtuung
Trinkwasser
civilization
excursion
fixing
focal
passwords
verfügbare
vorgetragen
##TL
##bn
##chant
##gebühr
##lah
##rafe
##rons
##zutragen
Extreme
Packaging
Vorkehrungen
befördert
burn
gerettet
lagen
mortality
muslimischen
theories
##AB
##ader
##dsten
##gesetzes
##rlich
##uke
Case
Entwicklungs
Nahe
Nobody
Umweltverschmutzung
Visitors
afrikanische
aids
bankruptcy
crazy
jet
physics
pronounced
##einrichtung
##guard
##mitee
##nai
##stan
##xis
Anweisung
Bäumen
Feed
Fernando
Files
Paradise
Santo
assembled
benefiting
bequeme
disclosure
dramatische
overlooks
##gische
##itate
##mise
##rios
##speicher
##treiben
##uno
Benutzernamen
DAS
Dörfern
Festplatten
Kambodscha
Stillstand
eMail
shifting
tags
##betreiber
##ceivable
##gion
##mbre
##minated
##schiff
##schreitet
##ually
1934
Artenvielfalt
Entweder
Gene
Kofinanzierung
Mandelson
Mitentscheidungsverfahren
Plant
Step
Victor
Vorsitzes
controversy
disclose
elaborate
niedrigere
verzeichnet
##action
##lays
##prechend
##runde
##tier
##wende
25th
AV
Chernobyl
Gesundheitsschutz
Inside
Vegetation
disciplines
einzuschränken
erforschen
gleichnamigen
hypocrisy
importieren
orchestra
scanner
seriousness
stairs
stürzen
vaccination
##ango
##fle
##ketten
##rechnen
##sal
##sau
##thalt
##titis
##usive
##verkauf
Arbeitslosen
Ausländer
Freedoms
Paketen
Prophet
Ursprungs
Vermögenswerte
aggregate
implied
pensioners
revise
soliden
##regation
##rug
##versal
##wesens
##ühlt
Anordnung
Entsorgung
MwSt
Polens
Quick
Spyware
Wohnraum
arose
disproportionate
fließt
intervals
legitimen
nineteenth
robot
shoot
slaughter
treasures
unannehmbar
##bliche
##bone
##mber
##seinrichtungen
##weichen
Definitionen
GSM
Joomla
Oostlander
Parlamentswahlen
Provinzen
Unterbringung
begegnet
cleaner
emphasized
grasp
od
##egierten
##flüsse
##lässigen
123
Bäder
Fauna
Getränk
Industrieländern
Internetverbindung
Networks
UCLAF
acoustic
assisting
belasten
dynamisch
forgetting
infections
irrelevant
reminder
vorangetrieben
##fachen
##uitable
##ursor
##wissen
1932
FÜR
Galerien
Naturpark
Progress
Tausenden
Taylor
anzugeben
belaufen
cables
cited
einhergehen
impressions
neusten
saves
seize
unsatisfactory
yourselves
zeigten
##eig
##gin
##iller
##kehrt
##mouth
AB
Ermittlungen
Mayer
Premiere
Romans
Tribunal
Week
actress
geringem
heisst
partitions
retailers
striving
tropischen
##akischen
##betten
##eves
##lity
##ntes
##pression
##rang
##ths
##ässlich
550
Drama
Fortschritts
Hugo
Intelligence
Karibik
Legende
carriage
erklärten
fremden
herausstellen
illnesses
objektiv
physically
spatial
traveller
##clubs
##kler
##mps
##rsch
##scheiden
##steuerung
##tu
##uni
109
111
Behauptungen
Cocktail
Energieträger
Marktführer
ausbauen
auseinandersetzen
berühmtesten
bombs
energisch
frameworks
funny
##aut
##berater
##child
##fache
##hängt
##lce
##nium
##reu
##zeuge
##ühen
Elektro
Perspective
Platte
accesses
bedauerlicherweise
clinic
explosive
hang
oak
offence
racist
##LP
##flotte
##oyer
##verantwortlich
260
Einzelbetten
Haushaltsverfahren
Heilung
Inspiration
Meilenstein
Schmerzen
Unabhängig
Vorträge
Wirtschaften
angelegten
befriedigen
disadvantages
entwerfen
humane
musikalischen
rewards
servieren
trap
wasted
worn
##lit
##ruft
##top
##uta
Auskünfte
ICC
Illusion
Lift
Malerei
Materie
Plenarsaal
Publikation
Senegal
Weltmeisterschaft
assert
erschweren
nose
shelter
vorgeschrieben
##atar
##bieren
##filter
##hol
##höfe
107
Death
Prager
Richtlinienvorschlag
Sektion
Yugoslav
dish
judgement
jüngst
konsequente
misuse
organizational
precondition
##antes
##brücken
##equenzen
##rocken
##uct
##ufung
##wettbewerb
Anschläge
Einhalt
Euroraum
Feel
Interieur
Interoperabilität
Mandats
SanDisk
ally
eigens
entrusted
gesetzten
jetzige
newer
travels
unweigerlich
warnen
##cord
##fizierte
##gesichert
##ml
##osing
##pad
##vé
##ym
Ortega
Remote
Wars
Zusatz
ears
erfährt
journeys
kürzester
mainstreaming
printers
simultaneous
stadium
##bay
Agricultural
Batterien
Industrieländer
Industries
Interactive
Philippines
Plugins
Roulette
Se
Sternen
Television
advisable
approached
avant
belgische
blank
representations
utterly
wirtschaftspolitischen
##57
##aled
##ali
##allererst
##aso
##wicklung
Bands
Irlands
bittet
brush
intolerable
konsultiert
pink
relocation
vertretenen
##ases
##chaftlich
##chair
##gerecht
##rsen
Alternativ
Arc
Array
Gewebe
ICT
Mütter
ear
liest
termination
vs
weakening
##gemein
##standard
##visors
##öffnung
Erdöl
Log
Nelson
abgelegt
atemberaubende
bezeichnete
proxy
tauchen
wp
##hört
##ischten
##mile
##points
Aktiengesellschaft
Angleichung
Interviews
Potter
Senator
Snow
Textilien
ausschliesslich
austauschen
billige
cette
egg
hinreichend
ministerial
terminology
unterhält
workflow
##cycle
##enischen
##geladen
##gno
##holung
##kas
##lou
##mand
##rift
Focus
Honduras
Klienten
Resolutionen
Sulzer
Troika
Werkzeugen
baroque
benachteiligt
einheitlich
faszinierende
grosser
masters
mirrors
nel
squares
stabilisation
streaming
tiles
umbrella
##OO
##amente
##aunen
##defizite
##fil
##lzen
##olie
##straßen
##tà
##vial
Emma
Erwartung
Maler
anlegen
funktionierende
gates
gewissermaßen
leid
vergrößert
vorlegt
##ater
##chwächung
##haut
##js
##pur
##rell
##sausgaben
##seen
##zulassen
Antibiotika
Arthur
Forums
Gebot
McCreevy
Merkmal
Orlando
Profis
Velzen
abstain
analysed
animated
enthaltene
gun
infringements
slip
##TP
##attet
##charta
##garage
##gular
##kistan
##racht
##ungalow
##zügen
Benutzen
Einzelzimmer
Functional
Genauso
Ponte
Riccione
Tasche
notwendigerweise
refrigerator
rufe
schwerwiegenden
##chliesslich
##deckt
##gram
##ndig
##reisende
##tention
Abweichungen
Grundprinzipien
Nase
Torres
corporation
##mme
##pedition
##umfang
##wohnt
Cookie
Ermordung
Herbert
Lieferant
Lockerung
Recovery
Umweltschutzes
dental
derogation
doctrine
öffentliches
##chema
##jährig
##strich
##tex
##uth
##ête
Europäischer
Konkurrenten
Warschau
comparative
cosmetics
erschaffen
fired
heiße
jüngeren
painter
unterteilt
wouldn
öfter
##bibliothek
##feldern
##festival
##leute
##lz
##sets
##stel
##uption
##ßung
##öre
Backup
Equality
Koch
Unterkünften
Woods
baltischen
challenged
forwarded
mask
secrets
sided
translator
##aque
##cist
##rom
##stationen
##war
Absicherung
Embedded
Liverpool
Markets
Massaker
Personally
banner
buried
cook
detailliert
drucken
genre
glory
kollektive
på
##freundliche
##indliche
##more
##ndlich
##sbild
##wandte
3G
Avenida
Bund
Dax
Honda
Raumes
Tatatabot
Villas
aufzufordern
consecutive
grenzt
jahrelang
passionate
selective
versus
##ajo
##dienstes
##eat
##nch
##olly
##ruck
##turen
##äuche
Asiens
Bestehen
Gegenzug
Glacier
Integrated
Palästinensern
Vermittlungsverfahren
additionally
dozen
eager
eingebaut
predominantly
romantische
seltenen
talented
vielfältig
##beschreibung
##cto
##dina
##faßt
##mächte
##rikanischen
##usa
Außenhandel
Blickwinkel
Jim
Pietro
Schreyer
Unionsbürger
auszutauschen
creditors
friendliness
implants
modernem
objektive
platziert
sobre
sunset
survived
zielen
##auer
##böden
##ingt
##kannte
##sicherung
##xel
Helmut
Kennedy
Laufwerk
Menu
Nummern
Sid
Verwertung
Zugehörigkeit
ausserhalb
differs
machining
restricting
shots
tie
##bern
##bridge
##gment
##kor
##ktieren
##lastung
##resses
##schild
##tzt
##zel
##ächen
Complete
Crete
Einsätze
Formulierungen
Jamendo
Kapitals
Kofi
Kommissionspräsidenten
Lo
Optimismus
accord
approving
beschlossenen
counted
extensively
kalten
microwave
mobilisation
practise
##cut
##dumping
##ffnet
##minen
##schließt
##terrasse
##wandt
##western
##ächtigungen
Na
PADI
Rumäniens
Rückseite
Schweigen
accelerated
ausgebildet
carpet
excitement
housed
legalen
multilaterale
proceeding
verbindlichen
zuweilen
##ample
##bike
Bernard
Charlie
KORE
Landhaus
Sänger
Yoga
Zeitraums
Zweifellos
cultivated
kompetente
##einstellungen
##esta
##europäische
##idy
##nics
##seitig
##temperatur
##öhnen
70er
Assistenten
Bekenntnis
Bourlanges
Diesel
Individual
Initiativbericht
TB
Versagen
Völkermord
aufzuheben
bekannter
fishery
fold
intensivieren
interessierten
surprisingly
uranium
älter
##cket
##cure
##hole
##mble
##rar
Buddha
Etikettierung
Kandidat
Segeln
Startseite
Turning
VIII
VW
ermöglichte
fester
gehörten
gestaltete
helle
ließe
mp3
reassure
vorigen
westlich
##As
##anbindung
##automaten
##esign
##handlungen
##inating
##lernen
##mst
##note
##piration
##rats
##riangle
##snummer
1600
1914
Leader
Setzen
betonte
bills
gegründete
landmark
pub
supranational
##ckte
##eta
##tagung
Accommodation
Aktivierung
Casinos
Plänen
Quarter
Unfähigkeit
advertisement
alcoholic
betone
brochures
flats
inspire
logisch
##WA
##WS
##ltern
##modus
##nien
##ush
##xes
1936
Bewerbung
EBIT
Fußgängerzone
Interaktion
Jacob
Verfasserin
betreten
disregard
epidemic
fantasy
getrieben
vgl
##laß
##läufer
##most
##ratie
##rp
##teuerung
Alma
Benutzeroberfläche
Knoten
Komponisten
Künste
Luis
Piloten
Reis
Schlafzimmern
accusations
beneath
feeds
folders
invisible
personenbezogener
radikalen
reserviert
verbleiben
zurückziehen
##ieht
##iliation
##imeter
##male
##ument
##zuheben
Behrendt
Gerichtsverfahren
Resources
balances
bankers
camiones
darlegen
durfte
gt
mysterious
predicted
proving
publishers
risky
spiral
summits
vorrangige
##fusion
##itted
##owling
##sur
129
Businesscenter
Command
Junge
Lignano
Produktes
Workers
Zadar
degli
mediation
oppression
ridiculous
##WB
##amma
##cide
##dungen
##katastrophe
##sdatum
##smanagement
Anderen
Disk
Einvernehmen
Rhetorik
Tschernobyl
appeals
butter
casa
centro
compounds
hervorrufen
ink
koordinierte
modem
outlets
pets
tactics
##abschluss
##gewiesen
##har
##nitz
##pires
##reht
##seller
##tasy
##tauchen
##wirtschaftliche
Aussetzung
Dagegen
Einsetzung
Former
Paolo
angeführten
imbalance
kalt
poster
##bige
##dichte
##going
##grafische
##iale
##lient
##pend
##rush
Azerbaijan
Carbon
Erfahren
Kenia
Schwester
generiert
mancher
motors
setzten
trusted
zurückgegangen
##DO
##oud
##ussisch
850
Abgabe
Different
Insurance
LKW
Picasso
Seeverkehr
Trust
Währungspolitik
generelle
korrekten
leap
lebten
praktiziert
radar
readiness
regain
repairs
stamp
vendors
verkauf
verlegt
##ador
##begriff
##ereien
##ießen
##ituation
##kirchen
##lizieren
##mentary
##onne
##rächtigen
##struction
##yed
Helden
Script
Students
Taschen
Zeugnis
bevorstehende
denkbar
dritter
eingefügt
eingreifen
faithful
fangen
geeigneter
illustrates
liberties
mins
verantwortlichen
##aia
##dokumente
##gerufen
##lino
##marke
##problemen
##steine
##tätigkeiten
##ädigt
Beobachtungsstelle
Diesbezüglich
Entschließungsantrags
Simple
Werkstatt
borrowing
deux
municipalities
##chof
##gnose
##hester
##konstruktion
##praktiken
##software
##wandern
##wechseln
Aufenthaltes
Charakters
Dan
Doktor
Gerhard
Lulling
Protokolle
Sternenflotte
irgend
locate
overlooked
prohibition
strenger
switched
tabling
##bag
##fernsehen
##gebildet
##inous
##rab
##tico
Folgenden
Lohn
Manual
SOE
Spezifikationen
entrepreneurship
grande
guess
repository
unwind
##azione
##ebel
##farben
##kulturellen
##lierung
##ndige
##smitglieder
##tream
##woche
Bewerber
Catania
Elend
Erdgas
Highway
Kontakten
Parties
Söhne
Traffic
ausfüllen
beabsichtigen
eigenständige
exemptions
gateway
kostenfreie
obsolete
rings
sponsors
underwater
##VER
##formationen
##iking
##pation
##plattform
##tegration
##zeitung
##überweisung
Mass
Rentner
Traditional
assistants
rechtlicher
scores
vernachlässigt
verschafft
viability
übermäßige
##ITE
##base
##cherche
##gner
##leidet
##loor
##nbad
##not
##pack
##reten
##seln
##sorganisation
##the
##uccessful
##upe
Fotografien
Hoffentlich
Inland
Nike
Rent
Share
Wahlkampf
allowances
championship
converting
festigen
geschlossene
missbraucht
zweierlei
##RK
##gelt
##loppy
##riere
##rá
##shilfe
##tem
Bayer
ETA
Miller
Oberflächen
Resorts
coat
dahinter
empfinden
geräumig
logging
sonnigen
stretches
useless
##300
##cort
##dner
##genannten
##isers
##leih
##rben
##talten
##äss
Abstimmungsstunde
Arme
BE
Important
Kundendienst
Opel
apparatus
bestmöglichen
id
mistaken
modernization
mußten
stilvollen
übertrieben
##VD
##bewegungen
##mitte
##pher
##sorganisationen
Ask
Brien
Gemälde
Heinz
Königin
MAN
Nabucco
Put
Schwung
TEN
amateur
audiovisuellen
climatic
grösste
herein
nad
variieren
##awi
##frieden
##gärten
##hamed
##herstellung
##laring
##rett
##tina
##tr
##tritten
##wußtsein
Delhi
Metropole
Vereinbarkeit
Walk
Württemberg
angenehmer
beklagen
brave
complying
delights
erstrecken
feiert
lowering
naher
yearly
##cheidung
##chwächsten
##este
##kampagnen
##ordinator
##äferenzen
##ügel
Bereichs
Dasselbe
Mais
Need
Numerous
Philip
Venezia
WITH
deficiencies
direktem
mercy
schädlich
slots
wholesale
##angehen
##dicate
##itude
##konsum
##nca
##nner
##ones
##onia
##reg
##räder
Duo
Germain
Isolation
Kopieren
abundance
fünften
inspiring
pockets
prompted
verlässt
##frame
##hare
##inde
##lke
##metrie
##oral
##ota
##plex
##ropolis
##runk
##uite
##älen
270
Jungfrau
Rechenschaftspflicht
fulfilment
holdings
tutorial
##TES
##gewinnung
##rende
##züglich
Netzwerken
Spybot
Treasury
brauche
cafés
communism
duly
poet
proportional
vigilant
vorhergehenden
welch
##angaben
##aver
##cape
##oxid
##sdauer
##xies
Chips
Compostela
Fuße
Michelin
Profitieren
altes
benennen
bürokratischen
drohen
konkurrieren
soccer
supplemented
underlines
Überlegung
##AY
##ackt
##chungen
##ermaßen
##iction
##inhaber
##malen
##uben
##uity
##zlichen
##öpfe
Abzug
Ideally
Mittleren
Niedergang
Years
attracts
bits
erhaltenen
injustice
lined
shocks
skiers
##baus
##bäumen
##erm
##öpft
Ernährungssicherheit
Feldern
Gen
Javier
Konditionen
Nuevo
Plath
Salz
Südamerika
Vila
Vorfall
Zyklus
gewartet
imperial
meadows
occupying
schnellsten
verbreiteten
verwöhnt
##Gs
##rippe
##slosen
##tained
##ummer
##vocation
Across
CET
Hass
Henri
Kaliningrad
Meran
Puerta
Rechtsakte
Sankt
Warenzeichen
Wichtigste
Zusammenspiel
abseits
adapter
battles
billig
sculptures
##amo
##besitz
##bäder
##cipation
##dokument
##garde
##nkel
##rust
##uma
Blockade
Osteuropas
Quote
Ramada
Versöhnung
Volksrepublik
accomplish
bekunden
festgelegte
lasted
standardmäßig
thee
viewer
##EEE
##höhungen
##iations
##käufe
##ored
##rstattung
Abfällen
Bass
Bauteile
Befriedigung
Haushaltsbehörde
Maestro
Moses
Prior
Quartet
Thermal
Vertraulichkeit
belohnt
denial
eigen
guardian
honoured
km²
kulinarischen
os
redundancies
spiegeln
trekking
verabschiedete
##dale
##eden
##kinder
##roads
##wachstum
Alta
Besonderen
Coelho
ENT
Erteilung
Ghana
Karas
McCoy
OpenCms
Porte
Randzio
Tea
Things
Zentral
aggression
anfangs
auswirkt
cow
journal
overcoming
recipients
wandern
##ods
210
André
Baroque
Besitzstand
Cover
Either
Energieverbrauch
Equity
Momentan
Wechselkurs
dunklen
feine
fluid
gekämpft
gestalteten
komplettes
och
precedence
quer
strebt
stroke
wahrlich
zuhause
##richtlinien
##smarkt
##thy
##urbed
Celsius
Churchill
Handelspartner
Peninsula
Simulation
Unterschrift
anwendbar
bedeutsam
easiest
kontinuierlichen
liberale
rhythm
sid
wagen
##lge
##olis
##rner
##shafen
##stallieren
Barcode
Compact
Distanz
Half
Schutzmaßnahmen
befürchte
builds
distributor
erlernen
konventionellen
legale
religiöser
sponsor
##cents
##erkrankungen
##esco
##gebirge
##ierbare
##isan
##oire
##poilt
##tall
##uble
##verletzung
##viving
Abteilungen
Baureihe
Befehle
Blingee
Bratislava
Champions
Erstes
Immigration
Masters
Namibia
Nov
Tragweite
Welten
deutet
freiem
geschwächt
impunity
lightweight
pregnant
squared
talents
versäumt
##bound
##chse
##deln
##igern
##ignano
##lastic
##loading
##mter
##pts
##stechnologien
##verlauf
##но
Body
Ethik
GD
Gange
Governor
Kleinen
Legislaturperiode
Lorenzo
Reifen
SOFTWARE
attaches
browsers
chic
exploration
indische
rückgängig
sicheres
willst
##cheibe
##fisch
##hmten
##lusion
##ntinue
##teams
Ausnahmeregelungen
Keramik
Petitionen
Philippinen
Roll
beforehand
dose
erachtet
eradication
hostile
kehren
mehrjährigen
paramount
preferential
schade
##200
##POL
##aßt
##chst
##gestiegen
##iff
##servation
##slage
##sprogrammen
##sstelle
##wertig
Befugnis
Broadway
FM
Kandidatenländer
Kreuzung
Militärs
VoIP
Wandels
appoint
cart
diagnostic
disagreement
einseitige
flavour
interaktiven
modernster
nukleare
relies
sowjetischen
##laub
Angehörige
Arbeitskräften
Bible
Consider
Wiederholung
Zugeständnisse
attacking
attain
erfreuen
glacier
handles
march
mehrheitlich
prescribed
regiert
retaining
speedy
undergo
völlige
zusätzliches
##ija
##imieren
##kmäler
##schiede
##ssy
##weigerung
##wässer
##zelt
119
Abends
Ausweg
Catalan
FreeBSD
Gardena
Kontrast
Missionen
Mittlerweile
Mubarak
Sekretariat
Spielzeug
Weltkriegs
Wände
administered
einheimische
formulate
graduated
professioneller
resultierenden
spektakulären
veterinary
vorgegebenen
##chancen
##enner
##hia
##iern
##ikale
##plane
##prehensible
##raf
##stimmt
##urtain
Alters
Bull
Casio
Catherine
Digitalkamera
Führungskräfte
Gebiets
Schicht
Täter
acres
ausgezeichneter
auszusprechen
cabinet
dynamism
festzuhalten
illusion
kick
offshore
perpetrators
äußert
##acts
##chick
##nutze
##prechen
##ractor
##teenth
##versuche
Finanzmärkten
Strahlung
Vermietung
allowance
auszugleichen
durchlaufen
einmalig
gestorben
maßgeschneiderte
rue
supermarkets
terminate
warehouse
##cre
##imation
##riad
##therapy
##versity
##ärm
##ützung
Dream
Hallo
Lucerne
NX
backwards
benchmark
beschloss
dissemination
einnimmt
exempt
gelieferten
grössten
ideals
rulers
surprises
swing
versuchten
wildlife
womöglich
##elung
##forderung
##gütern
##ué
1970er
Banks
Fun
Haftbefehl
Klimaschutz
Nationalparks
Qualitäten
Serben
directories
etliche
finnische
liebevoll
marketplace
merger
musikalische
rocky
sportliche
teurer
travelled
umfaßt
weitreichende
##aton
##chaffen
##hem
##ifizieren
##orientierung
##pert
##weilig
Anthony
Happy
Intensität
Kredit
Mao
[...]
